,
.
die
der
und
in
zu
den
von
ist
für
mit
das
auf
des
eine
Sie
im
es
nicht
werden
Die
ein
sich
dem
dass
wir
auch
sind
an
-
wird
(
)
als
um
ich
oder
:
haben
über
hat
&quot;
einer
Das
sie
einen
-@@
wie
zur
aus
bei
Ich
können
er
Wir
einem
nach
ver@@
diese
zum
Der
uns
!
nur
kann
s
durch
Es
a
dieser
er@@
noch
so
vor
wurde
?
Kommission
be@@
ten
te
t
an@@
Herr
aber
am
daß
müssen
sehr
sein
ge@@
wenn
In
t@@
/
man
s@@
diesem
alle
mehr
de
was
un@@
e
en@@
a@@
e@@
bis
war
en
Union
o
–
S@@
möchte
d@@
Hotel
Europäischen
eines
ab@@
ein@@
g@@
gibt
A@@
k@@
Präsident
vom
T@@
o@@
ihre
c@@
Ver@@
P@@
B@@
dieses
unter
d
f@@
i
K@@
hier
An@@
Be@@
muss
Ihnen
G@@
re@@
sowie
C@@
unsere
ter
E@@
zwischen
keine
F@@
Bericht
in@@
b@@
u@@
m@@
aus@@
...
p@@
&apos;
“
sch@@
D@@
Parlament
y
n@@
Wenn
Im
gen
anderen
da
Diese
st@@
immer
li@@
Ein@@
Ab@@
Europa
„
H@@
the
Mitgliedstaaten
Ihre
dann
M@@
dies
diesen
zu@@
i@@
wurden
ch@@
and
L@@
gegen
O@@
auf@@
Aus@@
y@@
damit
unserer
z@@
Frau
habe
Zeit
R@@
de@@
jedoch
ent@@
neue
seine
l
ungen
ung
N@@
ar@@
W@@
ti@@
l@@
finden
vor@@
al@@
ungs@@
h@@
m
Menschen
Jahr
Europäische
Re@@
über@@
heute
2
on
I@@
bereits
Er@@
sollte
mich
le@@
le
sondern
Jahren
EU
al
ge
.@@
ohne
bietet
neuen
%
;
sollten
andere
sten
di@@
liegt
v@@
Mit
zwei
V@@
1
ihrer
Ein
europäischen
Sch@@
machen
Frage
denen
Vor@@
k
geht
lich
ma@@
ganz
n
r@@
g
um@@
Entwicklung
allen
Rat
viele
In@@
te@@
la@@
enden
w@@
geben
Unternehmen
ern
Welt
jetzt
ing
Informationen
wieder
se@@
or@@
ter@@
dazu
ck@@
3
of
Z@@
Lage
to
ss@@
st
Eine
Dies
liche
einige
kommen
sehen
on@@
Bereich
schon
seiner
dafür
lichen
lassen
viel
mi@@
Für
j@@
darauf
stellen
selbst
ra@@
ab
Ge@@
Maßnahmen
unter@@
Jahre
is
gut
weil
unseren
ende
el@@
Zimmer
stehen
ihren
ihr
bin
mir
denn
Wie
ro@@
U@@
ob
Arbeit
sp@@
möglich
wollen
si@@
Und
meine
würde
ur@@
z
J@@
Herrn
sagen
etwas
se
tes
nun
sa@@
ck
u
chen
at@@
allem
ste
erhalten
ri@@
f
Land
4
während
op@@
waren
Zu@@
steht
ger
ische
seit
et@@
lo@@
Länder
ale
5
is@@
da@@
as
me
Auf@@
wo
ischen
A
or
Ma@@
doch
ie
Bei
ch
einfach
Un@@
ta@@
Unterstützung
ersten
c
also
beim
ange@@
Ro@@
gehen
bar
gen@@
ne@@
der@@
Teil
ens
besteht
ieren
len
Ländern
Stadt
Ihr
Zusammenarbeit
Problem
gt
end
Fragen
Seite
tun
Rahmen
wichtig
3@@
Auf
soll
E
Fall
insbesondere
ken
ler
it@@
dabei
Er
Verfügung
Auch
einmal
drei
wäre
De@@
seinen
Aber
Vorschlag
Ziel
bringen
Was
Daten
große
ber@@
letzten
be
Parlaments
Se@@
La@@
ger@@
bieten
weiter
sen
Bürger
men
S
iert
Über@@
ssen
worden
großen
Bedeutung
el
deren
befindet
I
wissen
Kollegen
Al@@
Art
Nach
Kunden
ne
che
führen
Ihrer
10
Als
os
welche
Namen
daher
Möglichkeit
ation
EU-@@
politischen
Recht
Sicherheit
weitere
sk@@
x
Thema
kein
Mar@@
x@@
h
em
to@@
könnte
muß
at
entfernt
Probleme
ce
stellt
alles
davon
aller
ment
ser@@
Regierung
all
St@@
2@@
ar
erreichen
ung@@
mo@@
Ihren
möchten
kommt
ei@@
unser
p
ho@@
licher
darüber
qu@@
besonders
meiner
Kommissar
Staaten
her@@
unterstützen
Weise
eigenen
sowohl
nehmen
ot@@
Politik
Alle
Ende
Sp@@
Hier
ins
Zukunft
den@@
au@@
na@@
wirklich
Le@@
ts
Beispiel
direkt
me@@
vielen
nen
System
la
mit@@
ges
&amp;
verschiedenen
hatte
natürlich
isch
con@@
halten
innerhalb
6
zi@@
ol@@
arbeiten
r
Um
lin@@
Uhr
b
USA
Weg
ten@@
ss
ak@@
cht
ja
gegenüber
ihnen
fen
Tag
ä@@
ir@@
ier@@
co@@
erste
mu@@
Dieses
Rolle
4@@
tz@@
Um@@
ben
alen
sta@@
internationalen
eren
30
bi@@
tung
Unter@@
The
Ar@@
il@@
mp@@
men@@
hin@@
Programm
Richtlinie
pro
Mo@@
Frauen
tion
sse
Pa@@
pro@@
europäische
bitte
unserem
ko@@
2009
7
20
Finanz@@
Pro@@
é@@
Produkte
Ra@@
schen
Lösung
tra@@
Euro
du
wei@@
ka@@
T
P
�
Meinung
Ent@@
beiden
gi@@
he@@
min@@
Unsere
C
Artikel
Y@@
lan@@
So
Deshalb
dern
setzen
cken
ul@@
zwar
weniger
politische
do@@
Hotels
sen@@
8
et
Fraktion
ausge@@
gung
Präsidentin
Situation
Dieser
dort
Hilfe
gesch@@
macht
ers
Ca@@
gilt
5@@
ert
jeder
Haupt@@
ie@@
ca@@
X@@
Haus
Ka@@
gesagt
hinaus
bereich
Zusammenhang
ur
8@@
Grund
gel@@
mm@@
us
Arbeits@@
Bo@@
Co@@
M
gern
ga@@
po@@
nach@@
Seiten
ster
ebenfalls
Kon@@
sogar
Leben
ma
recht
Region
brauchen
gute
daran
Mittel
etwa
gemacht
Millionen
Kinder
19@@
pa@@
kt
cht@@
elle
ß@@
vi@@
chte
50
unterstützt
Europas
sicher
&#91;
statt
&#93;
weit
O
liches
D
will
einigen
Qualität
Aussprache
Punkt
ssi@@
so@@
Abstimmung
pp@@
bzw.
bo@@
fa@@
Deutschland
Ta@@
gs
ihn
ber
darf
meisten
tet
handelt
Schutz
ex@@
ien
cher
dürfen
Personen
Sa@@
tige
Rück@@
dessen
ru@@
15
man@@
ff@@
jeden
seinem
nichts
lei@@
sprechen
w
indem
keinen
findet
genau
2010
ha@@
Mon@@
Dank
leben
zurück@@
hin
ut@@
Website
ene
Da
no@@
Neu@@
ci@@
enz@@
darin
gehört
glaube
Grund@@
tion@@
ke
Lo@@
besten
öffentlichen
durch@@
tischen
ihm
schnell
Ort
ö@@
chten
6@@
Ba@@
su@@
einge@@
kon@@
weiterhin
mar@@
erst
schaffen
ad@@
gerade
Von
all@@
tigen
Form
land
bedeutet
zusammen
sollen
wichtige
Wirtschaft
Ha@@
wer@@
7@@
per
for
nutzen
betrifft
Nähe
Haushalts@@
hal@@
Ko@@
ba@@
ihrem
So@@
ts@@
nationalen
ere
9
Software
sin@@
besser
rei@@
führt
Aus
solche
Service
nämlich
mon@@
To@@
Richtung
erte
Durch
allerdings
Ihrem
Ebene
bu@@
ner
würden
Kosten
deshalb
Bu@@
we@@
nächsten
auszu@@
tionen
du@@
tern
fi@@
deutlich
klar
2008
ali@@
bekannt
gu@@
zeigt
verwendet
Markt
Zugang
B
Gemeinschaft
Doch
hei@@
Bau@@
voll
Daher
lange
Version
Am
ß
Ansicht
ft
s-@@
mb@@
are
werde
Internet
hoffe
sei
mal
Rechte
ste@@
los
Gesellschaft
ve
Mit@@
Bezug
ac@@
re
zeit
lichkeit
wor@@
China
ü@@
km
tragen
Umsetzung
bleiben
fer@@
Con@@
-S@@
Verantwortung
verfügt
L
Welt@@
gestellt
18@@
Rates
fest@@
ia
Di@@
Li@@
EN
par@@
Ziele
zen
Möglichkeiten
entwickelt
danken
Ho@@
notwendig
erreicht
Verfahren
kleinen
aufgrund
Vorschläge
je@@
Po@@
Minuten
verschiedene
stand
Geschichte
Interesse
hotel
dar
Anwendung
Man
Bedingungen
aufge@@
9@@
ierung
wenig
bare
Demokratie
”
ben@@
Reihe
Vertrag
tete
tieren
helfen
Tra@@
Ex@@
könnten
kt@@
bereit
beispielsweise
weltweit
ce@@
Menschenrechte
ender
ent
Gebiet
tions@@
Me@@
ziehen
it
Restaurant
vielleicht
gegeben
Ru@@
alten
ige
ran@@
liegen
dung
1@@
hr@@
sche
vier
Liste
ig@@
erung
ermöglicht
Grundlage
oft
00
är@@
spielen
Energie@@
R
ven@@
Außerdem
fast
Herren
He@@
tiert
for@@
En@@
lung
Zu
Debatte
genommen
Do@@
unternehmen
gemeinsamen
ment@@
Strategie
0@@
ierten
her
ds
Na@@
wirtschaftlichen
bel@@
ellen
Geschäfts@@
tische
lage
wi@@
Da@@
Zentrum
tig
Institutionen
erforderlich
Unser
and@@
enen
e-@@
ell@@
Schritt
Sozial@@
100
je
Her@@
Dienstleistungen
zusammen@@
Seit
ierte
Berichterstatter
Auswirkungen
est@@
Gruppe
Umwelt@@
gemeinsame
v
ler@@
tive
Fa@@
hatten
gab
ant@@
Ga@@
gesamten
gleich
Fahr@@
zeit@@
do
Blick
ster@@
Damen
Antwort
schaft
internationale
weiteren
ell
fragen
Bar@@
&#124;
jedem
lässt
Ergebnis
Erfolg
000
sozialen
gte
No@@
einzelnen
Mitglieder
legen
denke
bil@@
heit
ag@@
weise
2007
12
befinden
*
Bitte
weiter@@
Abkommen
0
Au@@
Preis
Verhandlungen
ach@@
erten
’
les
ing@@
ebenso
fe@@
gleichen
Platz
kte
det
ine
Änderungsantrag
bleibt
Man@@
konnte
eh@@
wegen
Damit
bekommen
dar@@
Entscheidung
Sicherheits@@
sti@@
gebracht
Ne@@
jede
1.@@
geb@@
fahren
hätte
ku@@
Geld
richtig
kleine
Zum
wa@@
Änderungsanträge
abge@@
Krise
Bereichen
Einsatz
ischer
Hoch@@
Kar@@
Markt@@
weiß
K
zeigen
pre@@
stellung
ca
Kolleginnen
Inter@@
gerne
ms
eln
stra@@
enthalten
Aufgabe
que
bet@@
un
wichtigen
darum
ze@@
ed
per@@
Lösungen
Verbindung
Regionen
rund
Wasser@@
geführt
zer@@
san@@
+
Nach@@
einzu@@
neu
wohl
z.B.
10@@
fin@@
ktion
tiger
Mal
Projekt
gel
Beziehungen
gemeinsam
Hinblick
Vereinigten
Gra@@
F
fe
gestimmt
mehrere
Luft@@
unseres
meinen
Tatsache
lu@@
Gu@@
Bevölkerung
war@@
anzu@@
hen
G
go@@
Türkei
Par@@
Car@@
40
sorgen
gleich@@
bei@@
zurück
jedes
enthält
Vor
baren
ern@@
Abgeordneten
lau@@
Kontrolle
gabe
heißt
rä@@
bau@@
gleichzeitig
-B@@
For@@
wichtigsten
_
politik
am@@
Auto@@
nimmt
Lebens@@
Rei@@
Darüber
suchen
Daten@@
eigene
treten
Produkt@@
Angebot
Hand@@
Jahres
AR@@
mer
Russland
derzeit
cke
Rechts@@
voll@@
Erweiterung
inter@@
ganze
Mitarbeiter
Ausdruck
igen
ah@@
ßen
sh@@
Beitrag
verwenden
ums
ren@@
fer
ganzen
del@@
tem
Pi@@
chen@@
2000
Fach@@
25
Mi@@
stre@@
raum
one
len@@
Forschung
abzu@@
versch@@
verfügen
N
ra
Su@@
Ergebnisse
ann@@
Flug@@
del
ort
Behörden
Förderung
di
Bild
Entschließung
neben
Wort
teten
gende
Woche
pe@@
hi@@
é
Auswahl
halte
ändern
2006
Wirtschafts@@
IN@@
with
ermöglichen
meinem
Si@@
Partner
lie@@
guten
d-@@
Steuer@@
fall
Nutzung
innen
Verbraucher
th@@
völlig
sch
verbessern
verb@@
anz@@
Herzen
®
-A@@
Frei@@
ver
verfahren
Verbesserung
besch@@
20@@
hoch@@
Zeit@@
Umgebung
geschlossen
gar
Verwendung
Dabei
X
gra@@
großer
Tage
tiv@@
Wert
entwickeln
Landes
Gästebewertungen
Erfahrung
Du@@
gehören
und@@
hinsichtlich
kosten
Änderungen
by
Familie
á@@
co
Person
scher
Gelegenheit
teile
Verordnung
ER@@
wirtschaftliche
fünf
setzt
fest
Gäste
ckt
ta
sto@@
o-@@
Ausschuss
system
Während
bestehen
geh@@
Einzel@@
verbunden
ord@@
Themen
mer@@
Qu@@
eu@@
Preise
fördern
Regierungen
teilen
verstehen
Anfang
anderer
schriftlich
hohen
Text
später
a-@@
nie
treffen
Funktion
Wahl
Anzahl
ens@@
ik@@
kten
sc@@
Lin@@
schaften
mein
ausgestattet
ze
zunächst
Frankreich
ales
ist@@
t-@@
eller
Sta@@
stimmen
lediglich
bisher
Nur
leicht
Meer
ca.
äußerst
Wasser
P-@@
gesamte
Spiel@@
Zeitpunkt
Aktivitäten
win@@
lagen
lt
sagte
mittel
stark
rü@@
möglichkeiten
hohe
stell@@
Spiel
Schaffung
Wachstum
tatsächlich
Sprache
very
Interessen
än@@
volle
Gesundheit
lang
EN@@
oren
angenommen
Mitglied
tik@@
ters
Prozess
mm
neu@@
om
gten
Mai
senden
Kur@@
Land@@
ungsp@@
wider@@
tr@@
sor@@
nung
scheint
mes
soziale
E-@@
sion
Je@@
ssen@@
gs@@
somit
Produktion
Kultur
Dinge
Juni
sches
Sk@@
versuchen
vo@@
zahlreiche
kre@@
af@@
bringt
Programme
bt
Bi@@
zweite
ft@@
Insel
Ber@@
Küche
rich@@
wobei
Notwendigkeit
Einführung
frei
Gar@@
Natur
Hand
ich@@
genießen
Strand
größten
rie@@
September
nis
bar@@
außerdem
genden
cks
beg@@
bestimmte
Sport@@
Kampf
son
va@@
Initiative
zehn
Punkte
Fortschritte
Anforderungen
fra@@
AS@@
2005
Zahl
cher@@
Umwelt
pf@@
iger
ve@@
..
uren
erster
Raum
Kommissarin
AN@@
Lu@@
äre
ly
met@@
einzige
laden
aufgenommen
gef@@
fordern
benötigen
1.
Stunden
bau
.000
Handels@@
ES@@
Natur@@
bestimmten
gewährleisten
ente
haus
14
vergangenen
.com
sieht
insgesamt
tre@@
stei@@
ker
solchen
Stelle
60
Ja@@
Team
ser
Or@@
Erachtens
us@@
zwei@@
tier@@
Te@@
gend
ier
wählen
Dis@@
Anfrage
17@@
stu@@
Erklärung
15@@
Ku@@
Du
Meine
Wohn@@
Projekte
leider
tel
führung
aktuellen
Schul@@
Industrie
Aufmerksamkeit
wenige
Jahrhundert
dadurch
weisen
Ac@@
kan@@
Frühstück
Zur
eher
Dezember
Investitionen
größte
Handel
ig
Ti@@
à
maßnahmen
gemäß
ka
ke@@
bevor
Heute
Bekämpfung
Integration
ant
wer
Firma
Server
zweiten
eingesetzt
isches
Position
е@@
cu@@
meines
März
leisten
aufzu@@
Dialog
wichtiger
Vorschriften
IS@@
en-@@
ic@@
Wei@@
weder
ut
nt
Entscheidungen
gew@@
fort@@
au
2004
onen
Gewalt
Dateien
Gen@@
Wa@@
gelten
Fehler
lige
ure
sofort
Bereiche
Fin@@
ad
Bestimmungen
11
ären
ling
ür@@
gar@@
ien@@
frage
wieder@@
Sti@@
erwarten
hält
nahe
US-@@
Gefahr
Mehrheit
obwohl
Hotel@@
Flughafen
Ober@@
mor@@
16@@
Wettbewerb
Natürlich
verkehr
denken
konnten
tisch
Grenzen
begrüße
able
GmbH
fol@@
rau@@
tiges
neuer
Energie
Bilder
durchgeführt
18
gan@@
bel
he
198@@
ches
eigentlich
An
Bar
anischen
fallen
ner@@
Verb@@
einschließlich
wo@@
00@@
enten
werk
2.@@
Folgen
gesetzt
länder
lesen
Design
tu@@
ationen
Kinder@@
Urlaub
kurz
AL@@
Regeln
pi@@
Oktober
ort@@
har@@
nahme
ct
Linie
paar
gefunden
Macht
allein
es@@
hinter
schließen
lösen
24
bezüglich
16
ele@@
Viele
Mor@@
Musik
ty
Diskussion
ps
lernen
Ausschusses
Höhe
ni@@
y-@@
Groß@@
Mittel@@
Atmosphäre
laufen
Ch@@
Nor@@
Ansatz
Stadt@@
ob@@
ses
ton
län@@
Sache
morgen
War@@
Transparenz
erfolgt
geworden
produ@@
sel@@
Lassen
Januar
tungen
stelle
dete
La
ün@@
gungen
han@@
aler
Freiheit
stri@@
end@@
vollen
schließlich
ys
unten
fahr@@
о@@
mittel@@
kennen
Reise@@
Landwirtschaft
Bemühungen
weg
richtige
legt
Dar@@
Restaurants
»
erneut
Standpunkt
folgenden
€
We@@
Gründen
mal@@
AG
modernen
ven
dra@@
go
Berichts
Datei
ständig
Wahl@@
sagt
tiven
hoch
Den
öffentliche
erwartet
Einige
getan
Aufenthalt
ör@@
folgen
mente
behandelt
ihres
beste
Ad@@
entsprechenden
Präsidenten
lä@@
genannten
oh@@
Fu@@
warum
Bildung
Juli
Ben@@
Basis
europäischer
age
Fällen
gro@@
tä@@
mat@@
ität
Öffentlichkeit
ana
Selbst@@
ging
enz
Kunden@@
H
Kraft
Recht@@
Präsidentschaft
mann
stan@@
Unter
The@@
Zweitens
W
unbe@@
Web@@
beitragen
deten
2003
digen
14@@
zahlen
Beschäftigung
Nationen
freien
erfolgreich
rin@@
Dann
S-@@
Berlin
Lei@@
Benutzer
tzen
Allerdings
ER
besondere
erkennen
Behandlung
mischen
Tagen
nis@@
AT@@
kl@@
Entwicklungs@@
ik
Auffassung
danke
ments
Organisation
Druck
vollständig
Technologie
12@@
Monaten
ks
vergessen
Wer@@
bung
At@@
neues
pri@@
historischen
Sinne
200
Tat
sses
Außen@@
platz
leg@@
häufig
Wieder@@
hätten
Bad
Chi@@
EUR
eben
technischen
verhindern
automatisch
V
Wann
alität
Dazu
Spieler
ligen
Windows
Kunst@@
va
Berg@@
Fe@@
November
ken@@
jeweiligen
verantwortlich
berücksichtigt
Ihres
oben
deutschen
nisse
unver@@
Imp@@
gemein@@
Bild@@
na
Vertrauen
genug
Schritte
Fest@@
überhaupt
Wer
uni@@
Gemeinschafts@@
äu@@
stes
frei@@
CH@@
April
aten
genutzt
Gebäude
wahrscheinlich
versucht
Falls
dungen
Karte
ons
Erfahrungen
moderne
arbeitet
Durch@@
mü@@
80
Bel@@
Gesamt@@
Zusammen@@
str@@
Wochen
erlaubt
berg
tungs@@
sol@@
els
Ste@@
Inhalt
Gruppen
mel@@
daten
barkeit
Information
demokratischen
Sicht
Fra@@
fri@@
gang
seh@@
Beginn
Vergangenheit
erklärt
Internet@@
Mu@@
Sen@@
hof
markt
vertreten
zahlreichen
13
Spanien
teil@@
stets
Neben
Wi@@
ungs-
erfüllen
El@@
Prozent
Sonder@@
Per@@
rechts
g-@@
Angelegenheit
diejenigen
Ak@@
lich@@
letzte
Ressourcen
Bürgern
entsprechend
Gesundheits@@
IC@@
freuen
Pre@@
hören
Kultur@@
197@@
Werte
ktionen
Rechtsvorschriften
anderem
braucht
Bürgerinnen
welches
persönlichen
room
benutzt
zeiten
privaten
Lissabon
angesichts
gewesen
schützen
Systems
ted
Herausforderungen
glich
wert
stoffe
geschaffen
kosten@@
Tagesordnung
rechte
chs
Finanzierung
tze
zug
fahrt
bedingungen
Italien
Ri@@
500
lang@@
а@@
Änderung
Reform
Konferenz
zudem
Nr.
lose
B.
heutigen
Go@@
sechs
kam
bilden
reichen
Republik
ori@@
ausschließlich
verpflichtet
son@@
и@@
begrüßen
Nun
Hinsicht
Protokoll
schwer
außerhalb
from
gelegen
gesehen
Funktionen
Tri@@
land@@
übernehmen
endlich
Wein@@
Site
Kl@@
falls
service
Ger@@
Sitzung
alte
Privat@@
Aspekte
bessere
Fla@@
z.
kaum
ismus
Personal
dis@@
Ant@@
ate
entscheiden
Mal@@
aktuelle
läuft
greifen
Ist
schä@@
ans
abkommen
beide
Kor@@
schreiben
www.@@
verfügbar
alismus
Mess@@
spe@@
Op@@
freie
ST@@
cker
Industrie@@
Einrichtung
Milliarden
-T@@
Berichterstatterin
net@@
lat@@
Parteien
Wunsch
Obwohl
che@@
Systeme
2001
Leute
Voll@@
tik
Aufgaben
spolitik
Fo@@
zusätzliche
ris@@
Erstens
Informations@@
Gegen@@
Praxis
ies
seines
zumindest
rit@@
satz
bewusst
gebiet
lö@@
Arbeitsplätze
13@@
off@@
testen
Schwierigkeiten
übernachten
sa
Staat
bitten
CO@@
Denn
kla@@
lig
online
il
licherweise
net
Zudem
fel@@
«
Folge
Krieg
Ju@@
Tre@@
beginnen
arbeit
fonds
í@@
Hause
Ziel@@
Opfer
bald
klicken
you
hol@@
lation
the@@
eindeutig
lungs@@
Vi@@
Über
Che@@
D-@@
spielt
wahr@@
Park
ass@@
kur@@
unbedingt
New
Anwendungen
sierung
Cor@@
ron@@
heiten
Bürger@@
ap@@
Produkt
amerikanischen
oll@@
größere
Sal@@
Pla@@
jahr@@
Stra@@
ersch@@
U
gruppen
mindestens
Kre@@
Pat@@
offen
Vorteile
angezeigt
ph@@
Klein@@
tro@@
gekommen
nationale
Besuch
globalen
benutzen
entspricht
überzeugt
licht
lit@@
lungen
2002
Schließlich
Produktions@@
Produkten
stadt
Arbeitnehmer
anders
gleiche
folgt
Frieden
tere
dlich
mehreren
Hei@@
dlichen
Idee
nen@@
erfahren
Bil@@
т@@
trotz
Ö@@
geändert
Solidarität
Organisationen
äl@@
aren
gener@@
Fol@@
er-@@
wünschen
stärker
Armut
Lie@@
endes
Bet@@
E-Mail
vorgeschlagen
Technologien
Bei@@
Verfassung
Nicht
Reformen
Bal@@
Rat@@
Kern@@
Wahlen
lieren
gerecht
allgemeinen
fte
Computer
Q@@
Anstrengungen
Vielen
Warum
stimme
RE@@
zei@@
erinnern
dringend
Beg@@
Inhalte
jederzeit
zentrum
RO@@
A-@@
17
hoffen
prüfen
unterschiedlichen
richten
Zustimmung
Vertreter
gezeigt
IT@@
selbstverständlich
Sommer
entsprechende
Zunächst
schutz@@
Gipfel
pla@@
Flu@@
erwähnt
Bundes@@
pu@@
Suche
tiv
weist
akzeptieren
Klicken
bestimmt
sten@@
get@@
Sc@@
Annahme
technische
drin@@
ir
bedarf
tlich
eingerichtet
aktiv
est
haf@@
Instrument
Komp@@
Kontakt
wesentlich
genannt
vorgelegt
schutz
Ur@@
Falle
Jetzt
Osten
gelegt
Vereinbarung
schul@@
ces
Tier@@
spricht
Liefer@@
Kriterien
Nachfolgend
siehe
ard
sie@@
Pe@@
Stabilität
Hin@@
Verwaltung
langen
Prä@@
Verpflichtungen
Fil@@
Innen@@
Haushalt
Blu@@
digt
warten
Familien@@
glauben
igkeit
Nord@@
Paris
3.@@
wenden
Nutzen
Partei
Plan@@
Leider
prä@@
San
erzielt
Gesch@@
trägt
Online-@@
Straße
mo
geeignet
ors
Met@@
funktioniert
mitteln
erstellt
gere
Tro@@
kommenden
ro
handeln
Terrorismus
fo@@
Webseite
Chance
Sol@@
möglicherweise
no
Bio@@
ße
Ski@@
ordnung
Pan@@
Christ@@
н@@
zuletzt
bri@@
dan@@
Zeichen
darstellt
besonderen
imp@@
spar@@
fil@@
umgesetzt
enst@@
Mat@@
getroffen
voller
Sh@@
dienen
Einfluss
Einrichtungen
Spe@@
…
anderes
schafts@@
Col@@
Anerkennung
ffen
stehenden
gei@@
bra@@
Menge
Angelegenheiten
Sektor
Meter
jeweils
berücksichtigen
Augen
teil
gesprochen
igung
gruppe
tritt
art
Lan@@
ang
Gi@@
euch
Management
ierungen
Qualitäts@@
ologie
Mer@@
Fischerei@@
Monate
West@@
Ä@@
gr@@
erfüllt
Binnenmarkt
usw.
gest@@
besuchen
alisierung
kaufen
Sonnen@@
Ü@@
richtigen
Volks@@
Medien
verbessert
sse@@
Sie@@
komp@@
werte
ls
vermeiden
Har@@
Pu@@
OR@@
verfolgen
links
möglichen
vorzu@@
las
bauen
lern
Min@@
gesetz@@
fand
bestehenden
Zwei@@
mpf@@
EL@@
wir@@
gebaut
fällt
stil@@
sport@@
Wettbewerbsfähigkeit
Klima@@
Schweiz
lichkeiten
sche@@
punkt
recht@@
Forschungs@@
Durchführung
Nieder@@
gelangen
täglich
Lauf@@
geren
sieren
Sprachen
70
erhöhen
Haltung
hinweisen
ano
Komfort
ju@@
sä@@
dr@@
hilfe
Verkehrs@@
Kindern
Star@@
sicherzustellen
zeu@@
Pf@@
sei@@
Vielfalt
Ausschuß
dliche
nachdem
reisen
stellte
ok@@
irgend@@
1999
anlagen
Konzept
entschieden
angeboten
200@@
stärken
erzielen
dagegen
tsch@@
Anti@@
Anspruch
Familien
Ausbildung
om@@
notwendigen
Ban@@
benötigt
Volk
bs
Mitteilung
Leistungen
Preis@@
Besucher
liert
ergreifen
zentrale
xi@@
sicherlich
ften
Stil
losen
Herausforderung
ön@@
Schutz@@
reich@@
lichem
Garten
AC@@
Abschließend
informieren
gewinnen
August
ator
schlagen
All@@
Berichte
Veränderungen
vorhanden
ette
erstellen
reise
festgelegt
Pal@@
teilweise
zählen
außer
finanziellen
tt@@
entweder
alt
klare
Stimme
ländern
Dennoch
wären
kli@@
alo@@
hand@@
gän@@
Vergleich
Staats@@
räume
,@@
opp@@
Druck@@
tierung
welcher
Israel
satz@@
speziell
Modell
sionen
Fisch@@
IM@@
not
erleben
darunter
reicht
San@@
etc.
din@@
dene
UN@@
Teile
ierungs@@
Stand
schönen
we
läu@@
90
Geh@@
spiel@@
Engagement
anz
gre@@
Sehr
sage
feld
Arbeiten
Terrasse
wil@@
Standards
veröffentlicht
в@@
Zeiten
mäßig
Versch@@
Bre@@
ble
Kunst
Instrumente
Februar
ing-@@
ets
nächste
kraft
Wege
wollte
Angaben
Tur@@
gehalten
nten
Grenz@@
19
Bro@@
gene
TV
vol@@
freue
erfolgen
0er
ppen
Installation
ppe
Abschluss
fälle
ns
Kenntnis
л@@
des@@
wal@@
fung
hervor@@
zy@@
ov@@
ot
IT
Sehenswürdigkeiten
freiheit
eingehen
app@@
ance
eit
dig
imm@@
21
konzentrieren
wenigen
siert
Bri@@
gegründet
Kan@@
wagen
Großbritannien
stischen
300
hren
chung
ide@@
starke
Gel@@
zz@@
Mitte
arb@@
Tor@@
Irak
achten
oper@@
erungen
up
zen@@
Fuß
setz@@
ausdrücklich
nte
fu@@
Super@@
Japan
mische
setzung
erscheint
tions
karte
Uni@@
möglichst
mögliche
durchaus
Mio.
gkeit
sh
Fran@@
steigen
anti@@
überprüfen
Gleichzeitig
chtung
mati@@
führenden
trag@@
unterschiedliche
une
schwierig
Ausgaben
Sub@@
Wissen
Abgeordnete
haltung
ation@@
I-@@
Kraft@@
Tätigkeit
Stre@@
teilt
betonen
Paket
hängt
lokalen
stoff@@
Herstellung
Mehr@@
Beschreibung
Fer@@
Initiativen
Hauses
Pra@@
Dienste
our
medi@@
geschrieben
ank@@
ili@@
Ost@@
gerung
ots
ol
Regelung
scht
Kredit@@
umfasst
Ren@@
Regel
lauf@@
Booking.com
drei@@
rück@@
gehend
Ser@@
Gre@@
Hersteller
konkrete
jahr
Test@@
finanzielle
ó@@
Antrag
Th@@
gewährleistet
halt
Euro@@
Forderung
os@@
sst
empfehlen
Jeder
gem
fre@@
.0@@
profitieren
komm@@
jene
Gast@@
tätig
vorge@@
Ni@@
geln
haften
genen
Kri@@
nahmen
Programms
30@@
vorgesehen
DI@@
entstehen
komplett
ina
garantiert
sorgt
hel@@
geschehen
Comp@@
Worte
gefordert
Stellen
heraus@@
sicht@@
wirtschaft
EC@@
London
mö@@
glichen
Zweifel
Vielzahl
Kommunikation
Ukraine
è@@
gutes
mis@@
absolut
dennoch
Iran
sicht
Kin@@
Fü@@
betrachtet
Abend
Farb@@
Sil@@
führte
22
beschlossen
1,@@
uten
Name
Wal@@
por@@
Musik@@
Zeitraum
funktion@@
stand@@
halt@@
systeme
Verwaltungs@@
positive
Betrieb
Hu@@
&gt;
dank
kostenlos
cor@@
auss@@
Ster@@
dient
gestalten
star@@
Vereinten
See
nor@@
Fonds
struktur@@
Jahrhunderts
tel@@
werk@@
Ja
bahn
tur@@
einander
C-@@
politischer
Analyse
führ@@
unabhängig
zeichen
einfache
ding
Nacht
tie@@
geschützt
Entwicklungen
weiterer
Rede
Verkehr@@
Auss@@
that
dor@@
wür@@
Straßen@@
breite
tierte
Einigung
zeichnet
LE@@
tierten
haft
erklären
Villa
sektor
sozi@@
yp@@
tigkeit
dem@@
hän@@
LA@@
Hy@@
blo@@
196@@
Polen
Beitritt
verlassen
Can@@
Österreich
PC
fähigkeit
geleistet
denk@@
stische
einiger
Leistung
Gebieten
Dokument
diskutieren
elles
lag
Et@@
zufrieden
rieben
Fi@@
ari@@
schi@@
Vertrags
groß
kra@@
ON@@
spro@@
Nacht@@
с@@
Zweck
AM@@
Bedürfnisse
Sü@@
Meiner
Por@@
unterstütze
woh@@
Größe
schöne
ations@@
sicherheit
persönlich
erhält
kor@@
zimmer
ban@@
spezielle
cs
folgende
liebe
beginnt
ideal
Wirtschaft@@
Han@@
Ideen
Aspekt
Status
Griechenland
comp@@
Cre@@
Eur@@
überall
ct@@
Handel@@
sam
jährigen
Auto
programm
Mitgliedstaat
Indien
welt
lü@@
Universität
sb@@
Fotos
Aufnahme
Projekt@@
min
Süd@@
Unterkunft
Arten
darstellen
sinn@@
Seine
Währung
angesprochen
see
dro@@
schu@@
Weitere
2.
Forderungen
Teil@@
kat@@
Prioritäten
Port@@
eingeführt
miteinander
Priorität
Hintergrund
posi@@
werke
lig@@
sichern
,00
Geschäftsordnung
Bur@@
zuge@@
verbundenen
ies@@
dige
barer
zogen
Angesichts
35
hab@@
großes
Banken
mei@@
Dollar
j
ausreichend
nötig
Partnerschaft
Kat@@
Moment
Einhaltung
verfolgt
Irland
schen@@
geöffnet
anische
Technik
länger
Kirche
kulturellen
Erd@@
leistungs@@
Rau@@
flu@@
bli@@
besitzt
lo
gelöst
$
stellten
für@@
vier@@
Vo@@
schei@@
Weiter@@
Museum
tives
Ã
This
arten
erle@@
gert
Jo@@
öl@@
leiten
wunder@@
Altstadt
45
keinerlei
Sorge
Problemen
liefer@@
einsetzen
th
Beim
regionalen
heits@@
hergestellt
positiv
Rechnung
Standard
Bon@@
Bis
Bank@@
pol@@
Links
kar@@
Anteil
danach
eigen@@
markt@@
port@@
Dire@@
king
Welche
br@@
Forsch@@
ktiv
nden
kannst
Afrika
mehr@@
Arbeitslosigkeit
Wel@@
Hel@@
Arbeit@@
handel
te-@@
rufen
See@@
zustimmen
mag
Elemente
umfassende
Richtlinien
sätze
gegenwärtig
bre@@
m-@@
Fortschritt
bs@@
EM@@
Tradition
rat
feststellen
ober@@
Aussicht
were
bezeichnet
garantieren
schön
aufmerksam
beinhaltet
zusätzlich
Monat
tig@@
fall@@
Not@@
27
Märkte
Schlusselwortern
station
wen@@
stimmt
bestätigt
mittels
seite
Erklärungen
Stellungnahme
demokratische
heben
Regelungen
ings
ction
ON
beachten
Agrar@@
Innovation
starken
Mel@@
Sar@@
International
gegenwärtigen
größeren
gender
grün@@
Öl@@
technik
ati@@
eit@@
Überwachung
icht@@
ere@@
Fuß@@
Wo@@
beziehen
erg@@
sonst
Titel
sub@@
derung
sion@@
here
car@@
hingewiesen
best@@
vorliegenden
lauf
App@@
van
mas
gesellschaft
ges@@
guter
erfordert
ideale
Verhältnis
Patienten
fordert
Politiker
Barcelona
Bra@@
Gesetz
übrigen
Gei@@
Methode
Prinzip
ren
ff
Homepage
Vom
finde
scha@@
relativ
etten
beteiligt
ug@@
Brüssel
erhöht
istische
d.
internationaler
gaben
stor@@
Film
Gründe
Geld@@
23
Option
Achtung
anten
sämtliche
mmen
Tele@@
al-@@
vertre@@
offensichtlich
Vis@@
bekannten
Stärkung
tiver
­
dienst
erh@@
speziellen
ktor
Treffen
nahm
Zimmern
Formen
klar@@
ES
französischen
haus@@
sobald
Bewertung
ständige
Flexibilität
abgeschlossen
erter
Werk@@
Stand@@
Niveau
Stu@@
.00
gliche
ry
fort
verloren
Sinn
wirk@@
Gal@@
Reise
management
Kompromiss
stattfinden
dy
präsentiert
eiten
dert
Club
II
ET@@
My@@
Trans@@
Entschließungsantrag
betrachten
Bank
Angebote
chs@@
Entwurf
Doppel@@
sische
mil@@
Stadtzentrum
nennen
Anlagen
Lesung
=
form
fühlen
erforderlichen
Zahlungs@@
Tu@@
End@@
Ebenso
wirken
Mau@@
Risiken
schem
Gleich@@
Umfang
All
OS
Schu@@
informiert
regelmäßig
Pol@@
VI@@
lin
Apartments
Post@@
entsprechen
Bedarf
National@@
spezi@@
Zei@@
Hinweis
Gemeinsamen
olo@@
1-@@
tin@@
wichtigste
Maße
za
eri@@
CD
Schlüssel@@
Kritik
Firmen
übertragen
solcher
nah@@
Unternehmens@@
schneller
Multi@@
persönliche
Wirkung
ak
oni@@
mä@@
ett@@
tran@@
Worten
hauptsächlich
ole
up@@
zufolge
deutsche
lands
leben@@
oli@@
fähig
lte
ausschuss
Globalisierung
Mehr
tigung
führer
Risiko
istischen
zuvor
Win@@
teste
Farben
leitung
Ereignisse
manchmal
britischen
wä@@
Sprach@@
herzlich
stieg
legung
Hauptstadt
this
Pass@@
Nutzer
rechten
globale
Hol@@
tzung
St.
stoff
geschieht
Syn@@
iel@@
fern
Partner@@
schauen
Europäer
Dan@@
O-@@
spi@@
19.
ktions@@
our@@
Führung
staaten
AD@@
Verständnis
fäl@@
wie@@
2-@@
serviert
Veranstaltungen
Verpflichtung
Linux
Aufbau
stein
Gegensatz
erzeu@@
meist
staff
Eigen@@
stern
1998
gere@@
berühmten
bad
ker@@
Buch@@
Wegen
SI@@
tliche
teren
Mitteln
Vol@@
uner@@
Mag@@
Bestandteil
acht
Städte
Einkaufs@@
isten
Ruhe
sucht
Ther@@
zur@@
klin@@
wesentlichen
Nicht@@
Ter@@
ehr@@
Nachdem
Formular
Y
ständigen
freundliche
erungs@@
zeichn@@
Verbraucher@@
Aufgrund
Rot@@
gezogen
stä@@
wesen
mini@@
Realität
karten
bequem
wan@@
anbieten
wäh@@
jüngsten
Eindruck
Holz@@
Vorteil
Gegenteil
SP@@
Netzwerk
jährlich
0-@@
behalten
Vil@@
Dienst@@
Beifall
Zahlen
Center
wand@@
zer
Botschaft
weiteres
sern
gelungen
line
schließ@@
Dadurch
SA@@
wann
cia
Video
but
schla@@
Hälfte
Gästen
daraus
strategie
Teilen
Aktionen
Transport@@
heit@@
Net@@
25@@
chti@@
bildung
enzen
gendes
Empfehlungen
gigen
einverstanden
ya
nationaler
Mitgliedern
Ausland
way
ire
fein@@
Beteiligung
umwelt@@
Jahres@@
matischen
ang@@
straße
ws
sper@@
Hoffnung
Klimaanlage
tin
bewegen
Services
entwicklung
stände
fan@@
beschäftigt
trifft
vari@@
Pri@@
Verfügbarkeit
zählt
Mann
Landschaft
reden
Such@@
dischen
begann
Ve@@
ko
con
Cu@@
Begriff
stoffen
sur@@
World
Unternehmens
einzigen
allgemeine
Grunde
Teilnehmer
traditionellen
Trotz
ki@@
techn@@
shi@@
fläche
echte
liefern
ziel@@
Kal@@
vis@@
Infrastruktur
Voraussetzungen
Vielleicht
leit@@
betroffen
Schw@@
on-@@
Reg@@
nachhaltige
last
RA@@
praktisch
tter
damals
ausschusses
ante
fen@@
vollkommen
gewählt
Verkehr
qualität
laut
Format
д@@
Stunde
don@@
wär@@
Inseln
reagieren
Straf@@
Benutzer@@
kürz@@
gener
Kombination
bedeut@@
menten
Erde
Hal@@
schafft
Agentur
einzelne
dä@@
pen@@
jungen
Winter@@
regeln
vorgeschlagenen
Amsterdam
Dokumente
kürzlich
schrift
publi@@
Termin@@
Fenster
höchste
erhältlich
ré@@
bal@@
Telefon
früher
Dr.
Grundsatz
form@@
deckt
Bla@@
enn@@
abhängig
dungs@@
mess@@
comm@@
Karten
Gebiete
schließt
yer
stellungen
gungs@@
Absatz
Dienst
Adresse
tert
halb
Prüfung
rechtlichen
Quali@@
let@@
welchen
Bade@@
spiel
private
bin@@
Kosten@@
@
Innen
Rahmen@@
tlichen
erin
Bru@@
US@@
Methoden
wasser@@
verein@@
Bahnhof
bern
dur@@
international
ki
junge
bereiche
Gesetzgebung
bildet
diskutiert
Mein
Struktur
basiert
entgegen@@
Tages@@
willkommen
its
Serie
Charakter
od
sicher@@
iere
una
Sy@@
Licht
Geschäft@@
Unabhängigkeit
Eigenschaften
Wander@@
staatlichen
linie
sam@@
ins@@
Körper
Mindest@@
matische
digung
have
ruhigen
ou@@
burg
Mis@@
3-@@
Tatsächlich
ierenden
Standard@@
fla@@
angeht
Lehr@@
fällen
Kontroll@@
Sand@@
Tiere
Fre@@
Wil@@
nu@@
Überprüfung
lar
Anlage
Presse@@
iel
Mil@@
besseren
wirkt
zo@@
deut@@
Liebe
grenz@@
verlieren
festgestellt
Haus@@
York
spann@@
Spezi@@
Gro@@
Freunde
Generation
flü@@
Kosovo
Ki@@
Business
herr@@
hilft
qui@@
Buch
UR@@
Kauf@@
gangen
Grenze
sichtlich
bezieht
weite
installiert
akzeptiert
Ob
elli@@
sicherstellen
tischer
Phase
nummer
lan
fü@@
Königreich
richtlinie
zugleich
sprech@@
Lang@@
Fälle
Reaktion
schaft@@
kraft@@
Am@@
Menschen@@
ore
plan@@
harmon@@
Laufe
öh@@
auto@@
Klimawandel
brei@@
Vertrags@@
Zustand
zurückzu@@
Unterschiede
3.
Details
Gefühl
Bewegung
Wellness@@
Beihilfen
Zugriff
einrichtungen
Erhöhung
Fraktionen
preis
ktes
ded
Motor@@
Westen
Wor@@
Wettbewerbs@@
Spiele
anlage
EL
Glück@@
Internationalen
hafte
Männer
samm@@
gänge
LI@@
übernommen
standen
Grün@@
kun@@
Foto
nern
Bewer@@
beträgt
eite
hy@@
Militär@@
hil@@
staat@@
Ambiente
icht
Z
tri@@
dit@@
buchen
20.
Fl@@
betroffenen
Nutz@@
ç@@
ssel@@
tor@@
Sport
alt@@
kostet
Agenda
Datenbank
Antworten
wichtiges
schau@@
wodurch
ñ@@
pfen
Code
sch-@@
denden
kol@@
verk@@
24@@
schluss
verstärkt
ssystem
Struktur@@
Diskussionen
Le
konstru@@
aktivieren
Fähigkeit
Ordnung
welt@@
Ratspräsident
studi@@
leiden
Umständen
ßt
weltweiten
Voraussetzung
kts
Techn@@
zunehmend
tät
Material
isi@@
mitten
regionale
Meinungs@@
Pen@@
ary
Bedenken
ade
sieben
dri@@
good
isch@@
Mikro@@
gearbeitet
chter
Kunde
cken@@
Waren
kräfte
hoher
liste
schätzen
Dort
nieder@@
preise
Anfragen
Liberalisierung
ks@@
fal@@
4.@@
21.
liger
MP@@
Gesetze
tigt
aller@@
schung
grö@@
positiven
trotzdem
bru@@
kal@@
ce-@@
gesp@@
bericht
Architektur
historische
samen
soli@@
politisch
Anliegen
ator@@
hier@@
schlag
betont
eig@@
pan@@
Ohne
Letz@@
Plan
ils
rate
ziemlich
reich
Schule
Woh@@
Telefon@@
Süden
park
32
aktive
eröffnet
fach@@
Freude
Diskriminierung
starten
Microsoft
kleiner
Versuch
höhere
genauso
Ferien@@
Blo@@
Leistungs@@
u.
Studie
Fel@@
Video@@
²
IP@@
Koordinierung
Medi@@
stat@@
unternommen
Vorbereitung
tot@@
stehende
Gemeinschaft@@
nochmals
keiner
Teilnahme
ga
1997
Amerika
vent@@
bes
ware
steh@@
riesigen
Dimension
weg@@
Anpassung
Jedes
heraus
freundlich
wiederum
iens
ars
ländlichen
eng
gegangen
offen@@
Strategien
Sanktionen
entlich
befassen
behandeln
Materialien
Also
Link
eigenes
ände
entdecken
nungs@@
Ir@@
jemand
Bucht
industrie
ungspolitik
Don@@
räu@@
dritten
reg@@
werfen
verändert
Komm@@
Vari@@
Immobilien@@
Führ@@
Badezimmer
wn
Betriebs@@
Verhalten
Prüf@@
kop@@
h.
führende
neuesten
Kategorie
gewisse
erscheinen
maschine
ergeben
begonnen
cial
ehemaligen
produktion
umfassenden
Sitz
Effizienz
Mei@@
Küste
Nachfrage
niemand
kin@@
ja@@
Del@@
benen
Bau
cre@@
schönsten
Kamera
Basi@@
amerikanische
inn@@
mie@@
seien
drücken
hervorragende
tz
histor@@
teilung
liegenden
ähr@@
atur
Menschenrechts@@
modern@@
м@@
ausgezeichnete
schnelle
zwe@@
Air@@
Ab
Kann
Kollege
ha
Mass@@
Allgemeinen
anerkannt
Ferner
Willen
näher
bruch
dire@@
kern
spezifische
Fein@@
maschinen
gestern
beu@@
bank
cal
Dor@@
Kapital@@
seitens
Staat@@
interessiert
versorgung
Cli@@
steuer@@
emp@@
verlangen
Bestellung
zeichnen
5-@@
lar@@
unk@@
ander@@
dir
behörden
Nation@@
Untersuchung
derzeitigen
ernst
Auftrag
zusätzlichen
stren@@
spezifischen
erweitert
gische
bekann@@
Char@@
kurze
inzwischen
öffnen
smus
ed@@
Beschäftigungs@@
Experten
itäts@@
alle@@
Download
Model@@
entlang
Beratung
location
bene
Kla@@
gegen@@
Programm@@
schicken
Englisch
ek@@
EU@@
page
dienste
bro@@
Ke@@
hinter@@
Ausstattung
Besch@@
herrscht
kamen
gent@@
wünsche
Park@@
ichten
kurzem
Maßnahme
ziert
frie@@
Zer@@
iti@@
Maschinen
erei
Abschnitt
tut
Mittelpunkt
ski
alter
Grö@@
Dem
Verbesserungen
künftig
Cal@@
Forum
Wol@@
Bus
vertrau@@
vorher@@
ielle
Verkauf
Gott
Portugal
Ei@@
Schaden
195@@
Beispiele
Erwartungen
Netz@@
rasch
Einklang
Einstellung
tag@@
Buchung
Winter
q@@
US
dens
Halb@@
spa@@
Mün@@
Roh@@
zentralen
produziert
ht
Kontakt@@
falsch
Bor@@
Schweden
Eis@@
Prei@@
druck
erer
namen
ater
Mig@@
Lebensmittel@@
Plat@@
Kind
zuerst
wirtschaft@@
erheblich
eien
soweit
sprache
ats
wesentliche
systems
ther@@
wohl@@
belieb@@
tau@@
einfachen
vern@@
messen
terung
Google
Anbieter
ote
Geräte
Lab@@
weit@@
ausgezeichneten
obje@@
rahmen
ständi@@
Landwirte
richtet
ssion
Wird
Stein@@
City
р@@
Wechsel@@
besitzen
tens
bili@@
Gedanken
50@@
konkreten
col@@
menschlichen
Entwicklungsländern
BI@@
Tal@@
höchsten
betreffen
к@@
ic
niemals
mot@@
Norden
Unterschied
Kranken@@
Übereinkommen
König@@
Geist
ologische
Farbe
Dorf
Indi@@
Dusche
Brü@@
organisiert
Son@@
Ausgangspunkt
schwei@@
offenen
höher
funktionieren
Beitritts@@
Hostels
gratulieren
Wider@@
zugänglich
angemessen
füllen
Wahrheit
dé@@
sprach@@
sehe
gewal@@
inen
staatliche
legte
stag
tex@@
™
weisung
1996
same
Verbrechen
iss@@
wel@@
tionspro@@
elekt@@
chinesischen
fassen
gens
standards
delt
vielmehr
Pin@@
deck@@
Sommer@@
Klima
tag
kämpfen
Obje@@
Erholung
derartige
Leitlinien
28
stück
R-@@
tour@@
26
natürlichen
eignet
schwierigen
Werk
Prin@@
sions@@
hör@@
wissenschaftlichen
entscheidend
sitz
zweifellos
as@@
nehmer
Ton@@
Lebens
Boden
Körper@@
übernimmt
gefördert
sischen
dritte
Einstellungen
bedeuten
ierende
Hafen
entwickelten
Fitness@@
Schlafzimmer
lierten
Stimm@@
üb@@
Drittens
teilnehmen
lebt
buch
Gol@@
Alternative
Nu@@
Grundsätze
kulturelle
Verträge
zahl@@
Verbindungen
pra@@
Grundrechte
direkten
erreichbar
dienst@@
El
lautet
nütz@@
Werbe@@
Nachrichten
Tod
kehr@@
ungsprozess
besu@@
stlichen
Jede
Websites
Wort@@
Fot@@
Dra@@
Projekten
Waren@@
Hor@@
lebens@@
Nein
hu@@
DE
dge
westlichen
Definition
Angriff
lle
Wien
meter
Punkten
umgeben
ti
ei
Phot@@
mmern
center
Absicht
Mini@@
direkte
5.
extrem
Mitgliedschaft
test@@
lieb@@
Hi@@
unmittelbar
Fernseh@@
deu@@
grenzen
zustellen
komme
bemüht
Fort@@
kontrolle
feh@@
Konferenz@@
ute
verlangt
Veranstaltung
druck@@
Schla@@
gol@@
wasser
atte
bestand
Ratsvorsitz
Raum@@
arbeit@@
FR
ona
grundlegende
Steuern
Alles
tzt
,5
weshalb
Komponenten
bild
°
entstanden
fassung
Normen
Pool
klein@@
75
mmer
vert@@
Besonders
musste
trans@@
4.
11.
bezahlen
stet
Camp@@
kurzen
zäh@@
Firmen@@
bus
stisch
abgelehnt
träge
deln
Gegend
fordere
Nahen
Regierungs@@
grundlegenden
ica
Kenn@@
einzigartige
vorgenommen
olog@@
ID@@
ollen
Zentral@@
umzusetzen
erlauben
nissen
mächti@@
aut@@
Waffen
Ara@@
Berücksichtigung
tigte
5.@@
Künstler
Fähigkeiten
liefert
Optionen
Regime
atur@@
ungssystem
Beit@@
Eltern
sichere
Para@@
kultur@@
Schäden
unterstütz@@
viel@@
interessante
rischen
absol@@
schie@@
Cha@@
wirksam
wachsen
gespeichert
bereit@@
sicherung
views
Tagung
elt
Gerichte
eits@@
nungen
4-@@
Wirklichkeit
ursprünglichen
italienischen
berechtigt
Zwischen@@
Partnern
nie@@
vollständige
Bot@@
erenden
š@@
Strukturen
Ausführungen
struktur
Scha@@
eins
verschiedener
Krankheiten
Hü@@
allgemein
Agrarpolitik
plätze
Des
ine@@
zieht
via
Völker
Kilometer
liber@@
sinnvoll
400
Gr@@
Pil@@
ach
DA@@
Zy@@
Kooperation
Speicher@@
passiert
rung
Angst
bevorzu@@
verbringen
räumen
Asyl@@
rech@@
schlägt
Netz
Costa
Stellung
aufzunehmen
institutionellen
Umgang
Schwerpunkt
Klasse
ischem
Zoll@@
och
Rumänien
Medien@@
CA@@
Noch
installieren
ganz@@
ba
Zusatz@@
chi@@
fehl@@
zweifel@@
gischen
Information@@
Pflicht
Bat@@
Gestaltung
Kli@@
Planung
Kontin@@
Beweis
schule
Quar@@
ritten
ertes
Luft
entz@@
matisch
vieler
PS
person@@
spartner
orte
weiten
pe
sofern
verursacht
Berufs@@
my
brau@@
ssysteme
groß@@
Profi@@
erneu@@
Versionen
mt
Alter
fehlt
Ausstellung
Delegation
minist@@
Bemerkungen
ester
Sollten
Übersetzung
perfekt
Plattform
unge@@
Aktiv@@
holen
Mc@@
steller
Chinas
dre@@
Geschäfte
Morgen
wirtschaftlicher
aktiven
Wünsche
ungsin@@
material
durchführen
Leit@@
ktive
Entwicklungsländer
gefallen
150
rische
18.
Straßen
MS
Golf@@
cy
stru@@
ungefähr
Online
Ausnahme
Prozess@@
¤
SE@@
sorgfältig
echten
Zimmer@@
machte
München
Ausgabe
Anwendungs@@
Deswegen
stitu@@
durchzuführen
dende
fun@@
gele@@
Ausführung
definiert
verstanden
Gebrauch
attra@@
bekämpfen
Tisch
gerichtet
PL
wohnen
Comm@@
kün@@
behörde
beglückwünschen
Bus@@
pool
Selbstverständlich
niedri@@
MA@@
vertrag
De
Tourismus
halts
Element
russischen
dich
Je
Fischerei
igsten
Harmonisierung
Programmen
á
Werbung
sport
zulassen
Kra@@
Wirtschafts-
og@@
Pala@@
annehmen
geber
rip@@
aufnehmen
test
schrei@@
Maß
klaren
angegebenen
satzes
selben
Sor@@
produkte
fs
geboren
gestaltet
Ele@@
0,@@
nachhaltigen
reiche
ausgeführt
vorher
your
unden
Kommissions@@
Überzeugung
zig
geprüft
ents
ino
Konflikt
zentral
lichsten
scheinen
le-@@
netz@@
com
bestätigen
gehende
Wohl@@
enthalt
Sollte
Start
chern
Änderungsanträgen
ausgesprochen
Früh@@
ktur
Sitz@@
haber
flo@@
lien
verantwor@@
Balkon
preis@@
Tau@@
Web
derte
sur
rela@@
spanischen
gerin@@
verhindert
nahezu
Afghanistan
leb@@
verringern
individuelle
tenen
verkehr@@
Reserv@@
ergriffen
decken
breiten
lieben
Fern@@
Aut@@
benden
Tari@@
Austausch
Essen
Sonne
nahme@@
Beiträge
Kop@@
höheren
Software@@
verändern
Gespräche
zahlung
raten
voran@@
Bü@@
bezug
unmöglich
angebot
wettbewerbs@@
F-@@
Wein
berei@@
Mensch
can
ok
transpar@@
fiz@@
Ratspräsidentschaft
UN-@@
01
far@@
Förder@@
OT@@
ath@@
schlecht
präsentieren
anstatt
char@@
beschränkt
Mitglieds@@
forschung
ehen
Meeres@@
früheren
ffe
Minister
äch@@
hase
Dienstleistungs@@
dt
Mö@@
Empfehlung
Handeln
Schluss
minister
gut@@
ruhig
künftigen
Fri@@
entsteht
It
gek@@
version
individuellen
Preisen
ou
verabschiedet
Insbesondere
Tour
proble@@
aufgefordert
ausgesetzt
Webseiten
Massen@@
sed
Wählen
hinzufügen
zone
Wissenschaft
Problems
betreffenden
leistungen
zeugen
We
Oder
Golf
geräte
versi@@
Gran@@
ausgeschlossen
Hinter@@
chtet
züge
begrüßt
ols
formen
Kurz@@
sel
Bildungs@@
gli@@
Fehler@@
ließ
erfolgreiche
Stück
plan
trä@@
Nachricht
Frieden@@
Faktoren
inklusive
atoren
dauer
wechsel@@
fördert
aner
Out@@
Zusätzlich
häuser
selbst@@
lierung
BS@@
Pakete
Lö@@
stau@@
Anla@@
hrt
doku@@
x-@@
Datenschutz@@
Risiko@@
Rad@@
Beziehung
mals
welchem
Grand
Ange@@
gerät
Ware
schluss@@
Drei@@
Sach@@
angemessene
är
Veröffentlichung
notwendige
forma@@
lokale
bemühen
Vorschlägen
dio@@
vergleich@@
Rezeption
kri@@
heutige
Rund@@
Garantie
Sorgen
beraten
Neue
Ul@@
bestimmen
verhalten
dürfte
mögen
6.@@
bereitet
time
erleichtern
separ@@
innovative
Vit@@
verdient
nde
IS
lösung
Sto@@
Rechts
Verfassungs@@
Red
Außenpolitik
DV@@
ble@@
hing
sprach
15.
linien
sal@@
erende
Ob@@
SO@@
verkauft
IF@@
AK@@
Vereinbarungen
Studenten
ahl
einfacher
Tex@@
Chancen
Trau@@
Schau@@
bestehende
Sauna
größer
M-@@
üh@@
Selbst
Freund@@
Terror@@
ähn@@
gebiete
Ide@@
L-@@
B-@@
Arbeitsplätzen
kompet@@
Player
Zug@@
Wohnung
agen
zahlt
Mitarbeitern
van@@
Eli@@
System@@
zieh@@
Dru@@
leistung
wertung
ktion@@
Kurs
stin@@
Prinzipien
Neben@@
Abkommens
extre@@
omm@@
abgestimmt
Deutschen
sy@@
gespielt
miss@@
hervorheben
ierter
1995
verkaufen
chron@@
entscheidende
Verringerung
ast@@
sodass
kenn@@
Freizeit@@
gewi@@
DVD
Persön@@
Drogen@@
Casino
äumen
Übereinstimmung
Systemen
ktoren
Strukturfonds
verfol@@
Gesellschaften
deine
sien
Temp@@
Olymp@@
Gut@@
Nah@@
Gründung
Spaß
organisieren
vorhandenen
Gleichgewicht
2,@@
chtes
andererseits
gige
betrieben
kö@@
ersetzt
Marke
Geheim@@
Umfeld
ders
Texte
Anschluss
Dies@@
ono@@
Führungs@@
gefähr@@
mien
Typ@@
Sein
wollten
Schön@@
weis@@
unde
gü@@
platz@@
aut
großzügi@@
beln
alem
Spie@@
rechtliche
Haftung
ms@@
ée
hängen
überzeugen
cen@@
Enterprise
Wo
BIP
Spar@@
typ@@
od@@
part@@
bewähr@@
pass@@
Appli@@
bela@@
48
brechen
Gehminuten
Spa
fällig
britische
verleihen
worfen
kette
lass@@
modu@@
reduzieren
ahn@@
Transport
sü@@
Freunden
Schwer@@
—
Studio
2011
arch@@
rooms
ise
vorstellen
gezwungen
entwickelte
Server@@
Flü@@
Debian
individuell
fügt
zt
rö@@
ändert
у@@
port
sensi@@
sex@@
Konto
Zwei
Frankfurt
RO
ssp@@
Gerät
spä@@
Rechnungs@@
Kno@@
Zentralbank
ue
Untersuchungen
Back@@
.de
zier@@
gewonnen
Vorgehen
Herz@@
Tour@@
Menü
Manager
entr@@
weis
vous
zunehmen
ball
KMU
Krankheit
п@@
Koh@@
Häu@@
kontaktieren
einig
Sau@@
entwurf
Minderheiten
Bemerkung
zusammenarbeiten
werten
eg@@
geschä@@
u.a.
Asien
offiziellen
cli@@
Verbot
ss-@@
Viertel
ley
angegeben
Gewicht
nacht@@
Aktu@@
erhöh@@
Kapitel
ev@@
beantworten
verbinden
tal
Genießen
stens
Schwe@@
integriert
wa
fahrer
kleines
IT-@@
Investitions@@
nation@@
wert@@
cation
verkehrs
erhebliche
Bars
vorlegen
sparen
entspannen
bekannte
wunderschönen
einerseits
modell
strukturen
traditionelle
Regierungskonferenz
solange
ritt
äußern
serv@@
Besorgnis
sicheren
Station
jün@@
gnisse
speichern
Wirk@@
get
Group
ally
Schlüssel
uelle
genügend
ktor@@
tt
Ziffer
erfolgreichen
Übernachtung
Dafür
Marktes
zuständigen
zugunsten
si
Meer@@
Beh@@
Suiten
punkte
Rest
Institution
größeres
effektiv
my@@
Kauf
Internet-@@
Kir@@
schle@@
äußer@@
Studien
6.
tigkeiten
vorbereitet
mus
Messe
Kommun@@
Erstellung
herunterladen
vie@@
schein@@
23@@
OS@@
Bedrohung
Drittländern
Log@@
Computer@@
förder@@
Kriegs@@
technologie
aktu@@
Sozi@@
Schulen
Va@@
beschrieben
Aktion
Plenum
erzeugt
Europä@@
log@@
Afri@@
beschäftigen
kungen
2020
ungspro@@
Off@@
dauert
и
Eurozone
Star
entscheidender
Pop@@
werken
Videos
blick
Kü@@
optimale
WLAN
anzuzeigen
Vorschlags
eingereicht
geltenden
rop@@
ül@@
és
sho@@
ett
29
gehörigen
stanz
Modelle
Parti@@
Darum
schal@@
Korre@@
maß@@
staat
einzigartigen
verurteilt
isierung
Trotzdem
modern
Wir@@
dische
bewer@@
Vision
Städten
Konsens
sichert
tage
wissenschaft@@
Service@@
aktiviert
ence
out
gewährt
Spi@@
fünf@@
ming
Mobilität
Premi@@
Willkommen
urs
tan@@
erwar@@
frem@@
Verteidigung
fanta@@
vertra@@
schte
Zielen
High@@
jährige
freut
d.h.
mag@@
Auge
gers
behoben
erinnert
kunft
letztlich
Hilfs@@
handel@@
mme
ld
Macht@@
grundsätzlich
zahl
7-@@
lten
Verbreitung
Far@@
Gener@@
tifiz@@
übrigens
Frühstücksbuffet
Kä@@
rein
stem
Cro@@
überprüft
ferner
gehenden
Men@@
roman@@
griffen
Identität
sitz@@
7.
organ@@
aussprechen
unverzüglich
tation
beruht
märkte
ves
stolz
ziele
Entwickl@@
Parkplatz
vieles
Tit@@
origin@@
ange
schalten
wege
Deutsche
sent@@
jegliche
denkt
regel@@
Vorstellung
steckt
Zwecke
einfa@@
vorschriften
ütz@@
gestattet
Alt@@
bekämpfung
bestellen
verbindet
vermitteln
gesellschaften
Charta
Bud@@
rig@@
dien@@
Datei@@
Ansichten
Währungs@@
Kräfte
spon@@
breakfast
bit@@
zieren
exist@@
außerordentlich
alistischen
ausschuß
genannte
ci
beziehungen
ara
17.
kung
a.
stal@@
organisation
poli@@
defin@@
ausgehen
ungss@@
Touristen
Wohlstand
gsten
ri
risi@@
utz@@
riffe
ull
Maß@@
Licht@@
verehrte
wach@@
--
strategischen
l-@@
potenz@@
setzten
nunmehr
Oper@@
ola
merk@@
Ganz
Arbeitsmarkt
französische
fertig
entspann@@
passen
empf@@
gebieten
Gast
Organis@@
wissenschaftliche
Denk@@
Sur@@
Genehmigung
inmitten
erhielt
läßt
Prozesse
cm
Einwohner
Sind
rechts@@
Lieferung
ausgezeichnet
steuern
mie
großem
Einbeziehung
sar@@
Brasilien
städ@@
Boot@@
s-
sta
WTO
sprogramm
veränder@@
solches
körper@@
bislang
verstärken
Marken@@
Nummer
gestellten
diert
Geschmack
Zi@@
wiederholen
beendet
Kontrollen
laufenden
Sicherheit@@
führten
Grad
Logi@@
ähnlich
profession@@
syn@@
elektronischen
effizient
tö@@
stel@@
überra@@
bereitgestellt
Spa@@
finanz@@
tnis@@
herzustellen
Hil@@
verantwortungs@@
Schwei@@
angepasst
langsam
33
verteilt
Signal
finanziert
T-@@
langfristige
Katastrophe
mäß@@
tho@@
schwe@@
erseits
reduziert
bte
Feld
situ@@
Schlaf@@
EG@@
kunden
Erzeugnisse
Hon@@
schwer@@
age@@
aufen
bereichen
setzte
Kommunikations@@
Gerade
http
Inst@@
Hier@@
günstige
Ungarn
stik
enter
Kontakte
mali@@
Provinz
geben@@
Festlegung
Werke
weilen
schnell@@
NE@@
basi@@
Polizei
lösungen
Ehr@@
vo
netz
bekommt
konfigur@@
Bekann@@
8.
Mann@@
16.
bett
einheitlichen
rt
ständen
kel
wahlen
bot@@
könnt
Einheit
Kol@@
Sicherung
rup@@
Wind@@
matik
Test
listen
Alp@@
code
bewus@@
beteiligen
Mangel
Besonder@@
fuer
tional
investieren
jen@@
PC@@
hervor
modified
ity
Dia@@
beobachten
Betten
in-@@
Gerichtshof
Einkommen
brü@@
an-@@
gebung
eli@@
Wachstums@@
gepf@@
AG@@
ativen
beigetragen
dustrie
akt
Dach@@
regu@@
Glaubwürdigkeit
Stimmen
stik@@
niveau
anwesend
faßt
Sektoren
Andere
Fir@@
Rom
ähnliche
gangs
Bereitstellung
bahn@@
osi@@
Einwanderung
gabe@@
Rein@@
verkehrs@@
teilungen
ase
Kroatien
has
erre@@
ht@@
geschichte
Standort
st-@@
famili@@
bewe@@
getragen
zung
Kopf
blu@@
heißen
Newsletter
menschliche
verfügbaren
gan
Freitag
Elektro@@
hö@@
SS@@
pflich@@
gebildet
Boden@@
ssig
č@@
had
sauber
Glück
hochwertige
Abendessen
Hohen
richtung
Konsequenzen
11.@@
klein
weitgehend
Dokument@@
Fahrzeuge
Donnerstag
Fru@@
iellen
Mot@@
nutz@@
oll
mussten
pat@@
cur@@
essen
Lebensmittel
kurs
Reservierung
leu@@
600
Nachbar@@
steigt
täglichen
Text@@
Kreditkarte
wirtschaftlich
Lizenz@@
eingehalten
eur@@
rad
Pfer@@
bergen
Zeu@@
verwende
Schon
Erzeu@@
vel@@
Dauer
vel
Stat@@
iv@@
Wirtschaftswachstum
Diplo@@
Sä@@
geleitet
lischen
doppel@@
dau@@
greif@@
offene
erlebt
gewissen
asi@@
stands
Europ@@
Bulgarien
ause
mann@@
gelassen
big
fle@@
Schlussfolgerungen
erstmals
Politiken
fur@@
Rö@@
stör@@
Vorsitz
syste@@
manche
Schweizer
einbezogen
Betrag
Anlass
Ankunft
herausge@@
geboten
Stoffe
Beide
za@@
tte
Passwort
Weiteren
id
auftreten
31
Personal@@
interessant
Inn@@
ersetzen
bere@@
bur@@
unterscheiden
Eisenbahn@@
jo@@
multi@@
grosse
S.
Mrd.
zw@@
kräf@@
vorsch@@
wiederholt
dan
Redner
grad
Haben
sser
nicht@@
10.
Brenn@@
tene
Energien
hierbei
8-@@
mark@@
früh@@
ness
terin
zentren
küh@@
V-@@
umfangreiche
schläge
Korruption
angesehen
mi
Geschäft
ologischen
phi@@
entschlossen
Gemeinde
Haar@@
herz@@
fei@@
daten@@
Dreh@@
gerufen
alisten
gewünschten
bares
Parkplätze
intensi@@
sichtbar
jur@@
gedacht
95
34
lierte
komfortable
tags
Gemein@@
Ten@@
Aktion@@
zukünftigen
militärischen
verbrei@@
zuständig
Jur@@
WC
gl@@
Fon@@
indi@@
а
bende
strebt
feu@@
viertel
freundlichen
zeichnung
Post
öpf@@
nü@@
Kontext
glei@@
passt
day
Reduzierung
brin@@
Tab@@
ning
tisches
de-@@
fes
betra@@
Miss@@
flächen
36
dienstleistungen
nel
dit
keits@@
gelegenen
bedeutende
Atom@@
währ@@
dent@@
vorbei
strah@@
met
Schrift@@
stellungs@@
ative
wechsel
ops
Männern
Band
kombin@@
Resort
lassung
Browser
igh@@
antwor@@
militärische
etab@@
800
Runde
Joh@@
Beschlüsse
DS@@
mail
Debian-@@
verdienen
Rechtsgrundlage
Besu@@
begrenzt
ogra@@
Personen@@
ursprünglich
Direkt@@
bild@@
bla@@
Positionen
samer
any
ful
bisherigen
treiben
komplette
Sachen
normalerweise
tief@@
ausgerichtet
kund@@
Schn@@
dos
65
betreiben
behaupten
dy@@
mens
c-@@
scho@@
internen
sammeln
alu@@
Offen@@
Überlegungen
maten
Anstieg
farb@@
Fron@@
12.
sig@@
chter@@
empfangen
behin@@
verwaltung
ennen
Gegenstand
Span@@
under@@
vers@@
{
Vater
ktiven
Ang@@
anschließend
Bahn@@
Betra@@
übergreif@@
Finanzkrise
tten
fügen
kro@@
Wen@@
Gefahren
Spitzen@@
Ferienwohnung
konzentriert
Sicher@@
gerei@@
ös@@
Erst
stands@@
bestimmter
lex
ösen
Nachbarn
Ph@@
melden
Dritt@@
heim
Best
Staates
Vorsch@@
Entspannung
Val@@
Gri@@
pt@@
spiegelt
zukünftige
flug
erkennt
Justiz
Roma
Schi@@
aku@@
Wochenende
ckung
Lizenz
jenen
konfrontiert
praktische
Speisen
auer
peri@@
Vier@@
Produ@@
mar
Demokra@@
pak@@
ast
Beschluss
bten
schreck@@
steten
Verlust
bü@@
7.@@
ds@@
diplo@@
Flüchtlinge
hervorragenden
Maschine
schnellen
oten
ED@@
lädt
Sei@@
Pläne
effiziente
Vorhaben
krie@@
perfekte
Kollegin
Fahrt
unabhängige
uts
selten
voranzu@@
Schiff@@
w-@@
vorgeschlagene
tigungs@@
fa
methoden
dacht
dauern
Eigentum
Zivilgesellschaft
PH@@
Geschwindigkeit
Sammlung
lieber
pp
sis
Chr@@
abstimmen
gebeten
eingestellt
ugh
Sterne
mitglieder
fährt
dankbar
Aqu@@
streben
Apartment
allzu
mittleren
work
wör@@
BA@@
natürliche
ader
Gerichts@@
künftige
flexib@@
lege
Büro
rieren
dargestellt
9.
seiten
Gesetz@@
unterliegen
Str@@
äh@@
mos
use
var@@
oten@@
99
Änderungs@@
dam
fähigen
0.@@
Meines
Belgien
tiere
Somit
dans
Dat@@
f-@@
bestimmungen
ek
gefragt
leh@@
zielt
Gericht
orien@@
malen
langfristig
Entlastung
nete
vorliegende
entdeckt
IR@@
Euch
versichern
präsen@@
Spezial@@
•
sprachen
fikation
vollständigen
Mut
Blog
zun@@
hunder@@
sträger
Veränderung
isiert
ssystems
Märkten
strategische
rän@@
13.
kapit@@
geplant
Europa@@
Konzer@@
Quellen
aturen
37
tiker
günstig
erkannt
verwen@@
anbelangt
unterschiedlich
Santa
city
ergibt
kationen
Aufsichts@@
Steuerung
räsidenten
verboten
Anwender
Haut
Invest@@
Klin@@
Prozesses
fass@@
hl@@
gnissen
zuzu@@
Amt
bereiten
Bir@@
Funktions@@
erfreut
Poly@@
reifen
erfahr@@
Innenstadt
angebracht
Friedens@@
apie
wirksame
Inn
gründen
Spielen
Programmi@@
Schiffe
aufgebaut
waffen
programme
Madrid
pour
einzusetzen
Entscheidungs@@
ú@@
nd
zeug
Völker@@
Verarbeitung
fon@@
sendet
antworten
Strom@@
leichter
anhand
grenze
ungsverfahren
gelingt
hingegen
Parameter
zent@@
Praktiken
Kulturen
jener
Vorlage
Cat@@
spiele
Emp@@
normalen
Freiheiten
Atlan@@
vielfäl@@
sozialer
mitteilen
umzu@@
belie@@
dig@@
wachsenden
unabhängigen
produzieren
onomie
unterzeichnet
Ausmaß
brachte
gend@@
hohem
geprägt
stete
hop
res
enti@@
terrasse
Marken
tief
Jahrzehnten
dierung
resul@@
cha@@
е
flug@@
Perspektive
korrekt
Finde
anschließen
institutionelle
Befür@@
ichte
legten
erfordern
Urheber@@
Situationen
Reisen
TR@@
instru@@
ritt@@
-0@@
unterstreichen
Rela@@
ena
k-@@
fuhr
hierfür
Band@@
2013
verständlich
raums
betrie@@
erklär@@
Ungleich@@
Ausflüge
fern@@
anzeigen
geraten
auff@@
Mir
194@@
xen
para@@
EG
Nä@@
letztendlich
Schiff
Pak@@
Ebenen
Design@@
Investoren
spreche
Ratschlag
deswegen
Zug
Kanada
ID
S.@@
grossen
Revolution
Gesam@@
14.
Wur@@
Darstellung
west@@
male
verteidigen
Heizung
optimal
dorf
Tran@@
Grünen
bezahlt
fanden
Registrierung
Überblick
alisierten
einzel@@
ando
Geb@@
aum
Krie@@
externen
mein@@
egal
Verschie@@
Quelle
nachzu@@
uch
Gerechtigkeit
ssel
Herr@@
sso@@
dlicher
Support
voraus
Besuchen
EI@@
vorschlag
Branche
spo@@
existiert
8.@@
swert
Pro
Zahlungen
Schwä@@
sts
trag
atten
richen
plus
Kapit@@
Schönheit
о
sichts@@
besonderer
öffentlich
EADS
Armee
Vertrau@@
ehrgeizi@@
yn@@
stammt
Bevölkerungs@@
1994
bedanken
schein
which
konferenz
kä@@
sichti@@
nice
Bibliothek
Leitung
ISO
mittlerweile
arbeitete
stati@@
gestal@@
Eingang
kontrollieren
more
zierten
Küsten@@
ll@@
well
garten
Sobald
Respekt
Mutter@@
Erfüllung
Großteil
Führer
engli@@
teure
m2
em@@
senken
Tätigkeiten
Abhängigkeit
Papier
ques
Beteiligten
Stamm@@
empfohlen
ablen
Internationale
heu@@
Symbol
steigern
Suite
Unterkategorien
anzen
On@@
Teams
märkten
Faktor
ala
Haushaltsplan
Tages
OM@@
Organe
Widerspruch
Web-@@
Г
klassischen
offizielle
eres
grei@@
over
schnit@@
entgegen
back
onn@@
Emissionen
NATO
Tun@@
aden
Rand@@
lers
Regel@@
vereinbart
name
ción
com@@
umsetzen
Netzwerk@@
ernsthaft
verbrau@@
mpen
Tä@@
treff@@
Tausende
Michael
beit@@
nei@@
Publi@@
Bearbeitung
ade@@
tter@@
untersucht
sproze@@
enorme
überaus
Aktionsplan
bahnen
Strecke
erfolgrei@@
bien
Gewährleistung
nä@@
schü@@
Fischer
optimi@@
kontrol@@
losigkeit
Verhandlungs@@
40@@
ranten
ck-@@
Orte
Individu@@
fähige
jetzigen
herrlichen
Ken@@
Berichten
letzter
Hamburg
Film@@
gewähren
Bedien@@
bio@@
klu@@
beschränken
alitäten
Urlau@@
dieren
iden@@
enthaltenen
dia
s.@@
Anmeldung
zin@@
erie
John
andt
EZB
Lesen
sus
cess
erweitern
illegalen
Ablehnung
Br@@
kennt
Schloss
unmittelbarer
erwähnen
linken
berechnet
aufgezahlt
umfassend
Maschinen@@
ye@@
grammatisch
Autor@@
AP@@
dateien
kontextuell
Stärke
Ven@@
digitalen
Poli@@
faszin@@
berichten
Gold
6-@@
Konflikte
spezialisiert
täten
ssektor
arischen
vorzulegen
restaurant
nehm@@
Schlusselwort
Schlusselphrase
9.@@
überein
Oberfläche
Refer@@
zierte
Q
innova@@
Auftrags@@
National
vornehmen
55
expor@@
Fal@@
JavaScript
Länge
ffen@@
}
tak@@
einheitliche
erzeugen
з@@
Hauptbahnhof
itä@@
stabilität
wn@@
Kali@@
ück@@
Rückkehr
Zuständigkeit
teur
öst@@
wahren
ständigkeit
pr@@
Haup@@
gestaltung
Generationen
Ess@@
Politi@@
Mutter
chn@@
renoviert
schten
Kn@@
ch-@@
X-@@
Turn@@
TI@@
Kompetenz
elektron@@
Kategorien
Street
angenehmen
sogenannten
qualitativ
just
geeignete
Montag
endet
dlichkeit
Andererseits
Dass
hielt
umfangrei@@
Stiftung
Kaffee
leiter
Planeten
beschäf@@
Profession@@
art@@
Symp@@
angewendet
av@@
Konzep@@
leute
graph@@
angenehm
ordnungs@@
Wür@@
sagten
vorschläge
Lern@@
Tei@@
CD-@@
sive
lück@@
sah
Zahlung
nützlich
festen
selber
eingegangen
hart
genaue
transpor@@
Regierungschefs
olle
erhol@@
ausgewählt
Zivil@@
Übergangs@@
tlicher
füh@@
г@@
reichhal@@
derer
bürger@@
Wald@@
Deutsch
tü@@
saal
begleitet
gehei@@
Bereits
V.
clean
fers
rich
anwen@@
Öl
mmer@@
austausch
Verteilung
besorgt
entfer@@
keit@@
Sonntag
abili@@
führungs@@
halle
Ursachen
ran
House
Sohn
Update
kreis
Fluss
ausgaben
betrieb
cker@@
Sign@@
meldet
humanitäre
Saison
behält
schwä@@
beenden
täts@@
cio
zwin@@
öff@@
Mitglied@@
sach@@
gla@@
Tür@@
kul@@
enge
38
Barroso
tenden
pl@@
schweren
hervorgehoben
inner@@
gewiesen
glich@@
frühen
hierzu
Wandel
Dritte
Betrieb@@
Pic@@
Jugend@@
Wan@@
Archi@@
kontrolliert
Mich@@
Regen@@
ong
hü@@
zugrunde
Sho@@
fl@@
griechischen
hast
Erinnerung
aktiv@@
mäl@@
slo@@
gemeinschaft
gemeinschaftlichen
gelesen
Gibt
gene@@
neten
Arbeitsplatz
schlu@@
Rü@@
Beoba@@
Bin@@
arische
änderungen
Spezialitäten
Museen
urlaub
ст@@
verz@@
Gang
gestärkt
freund@@
Einwander@@
Niederlanden
Verletzung
wartet
langfristigen
Analy@@
wort
beru@@
eil
Belarus
ergänzt
krise
zin
Cookies
eigener
Gemeinsame
keinem
klassi@@
Schaden@@
meister
wechseln
anspruchs@@
Verzeichnis
LAN@@
39
Pakistan
organisationen
Mission
EF@@
Wirtschaftskrise
stie@@
Freizügigkeit
Tauch@@
pack@@
frü@@
terie
abgesch@@
tende
Kab@@
professionelle
kümmern
Doma@@
stige
Innovationen
stoß
froh
bungen
mangel@@
Fernsehen
Potenzial
nachdrücklich
gste
Politik@@
wiederhol@@
bewältigen
Befugnisse
Extre@@
Dritten
î@@
letz@@
verla@@
IB@@
ue@@
Herbst
räge
Autos
friendly
verbess@@
Staatsan@@
Urlaubs@@
Poker
Berliner
Detail
gültig
Unterkünfte
Vir@@
proje@@
Hinweise
verbin@@
Autobahn
Annehmlichkeiten
Euro-@@
ey
Handels
Krisen@@
Wiederauf@@
lationen
Tür
blau@@
günstigen
Abschaffung
ated
Messe@@
England
dition@@
Parlaments@@
integrierten
Binnenmarktes
ón
häl@@
technisch
30.
einzuführen
ieht
Software-@@
98
Terra@@
region
schriften
OL@@
geführte
view
Einen
ünst@@
Aufent@@
detail@@
Zeitung
zurückzuführen
Fläche
anzubieten
Dokumenten
ungs
ßten
klärung
vorgesehenen
gesetzlichen
tari@@
NICHT
Den@@
Kampagne
ella
gnis
Freund
versu@@
Eng@@
besucht
Schulden
HT@@
Fan@@
Gesundheit@@
hor@@
Desig@@
Open
nische
air@@
Erlebnis
hoffentlich
Kapital
alien
aktuell
Cap@@
König
stro@@
Card
Würde
Gruppen@@
spolitischen
izi@@
Gelder
Umweltschutz
Dokumentation
entes
von@@
stammen
Amerikaner
tifizierung
überein@@
ates
Kriminalität
effektive
bir@@
geliefert
chische
zerstört
künstler@@
altet
Kandidaten
AKP-@@
Mül@@
Ep@@
wald
Doppelzimmer
Gleichstellung
64
gleichermaßen
schulen
Wissen@@
theit
wendet
Album
Berge
Benutzung
sitzen
geäußert
binden
ore@@
Nehmen
ökonomischen
event@@
proze@@
Jedoch
chinesische
Funda@@
Rich@@
freiwil@@
nah
rolle
politisches
gehör@@
gegenwärtige
ket@@
ringen
rechtlich
gn@@
Bereitschaft
Verlauf
EU-Mitgliedstaaten
Hoh@@
änden
sichergestellt
Schwar@@
irischen
alp@@
Herz
diskrimin@@
Bord
Appartements
anen
mittlung
verweisen
stattfindet
ctor
zeug@@
PHP
Modul
stärkere
09
ll
zeichnungen
verletz@@
Frist
aro@@
standard
partner
clu@@
DER
zukommen
eth@@
Waffen@@
knapp
Airport
ansprechen
dad
spra@@
verwei@@
hervorragend
fr@@
herauszu@@
Strand@@
Nahrungsmittel@@
typischen
vorgestellt
hr
Emissions@@
folge
sein@@
Vereinfachung
rechtzeitig
deh@@
steck@@
beträcht@@
Wesentlichen
Danach
krei@@
plat@@
los@@
derzeitige
Tool
beizu@@
ê@@
rechnen
gewer@@
ada
Studi@@
Wohnzimmer
Projekts
jähr@@
PT
Symb@@
Navig@@
Tru@@
bun@@
inspi@@
außen
klasse
Ersatz@@
mäßige
Kontinent
formi@@
Kons@@
Streit@@
wol@@
weltweite
anerkann@@
teils
Opposition
Marketing
Vorausschau
ato
Werden
festgelegten
entwick@@
Samstag
Pl@@
kompli@@
hro@@
älteren
Internetzugang
Theater
Frauen@@
â@@
ter-@@
festzulegen
Ander@@
Räume
Minute
Leben@@
dium
Klassi@@
Entfernung
praktischen
män@@
branche
grünen
hinzu
Volkes
Posi@@
Pflanzen
anda
reit@@
Miß@@
Kürz@@
Aktien@@
spät
Übersetz@@
gefasst
stechnik
funktion
überwinden
Aben@@
kostenlose
mischer
schrift@@
Ägypten
verwan@@
CS@@
Mili@@
iell
gelei@@
Regulierung
pun@@
ee
stoßen
Power@@
lung@@
б@@
Katalog
Bedürfnissen
grund@@
benutz@@
Häuser
Holz
beinhalten
mitzu@@
sauber@@
diesbezüglich
Menü@@
Entwickler
Air
aufs
Ansprüche
Kopenhagen
position
Objekte
Drittel
untersuchen
Rechtsstaatlichkeit
haftet
uellen
Koordin@@
türkischen
Sam@@
gie@@
betreffend
Gewinn@@
Bildern
hilfen
Distri@@
07
beeinflussen
geschickt
koh@@
derten
sorg@@
zü@@
ologisch
Patent@@
errichtet
igten
riebenen
mp
entfernen
Debatten
arbeits@@
Höchst@@
Pap@@
momentan
Schalt@@
Spann@@
MO@@
Instal@@
Rechten
08
lenken
verschieden@@
wahr
maßen
Öffnung
z-@@
Rechner
Tonnen
Kern
SD@@
Betreuung
Kap@@
sung
rieb
-TV
beantwortet
wohn@@
Besitz@@
desto
Salz@@
Zone
vention
rauen
yp
überlassen
Weil
relev@@
Seg@@
ruhige
FA@@
Berichterstatters
ari
stein@@
Ergebnissen
wesentlicher
gelt
verbindung
geblieben
Liber@@
Versorgung
gekennzeichnet
Institut
erklärte
Bere@@
arium
ungsproze@@
ologi@@
wächst
nehme
Währungsunion
iker
Vertrages
aly@@
sorge
Sat@@
qualifiz@@
gehandelt
Erwachsene
Sound@@
Einer
dunk@@
ml
tor
pon@@
längst
Pau@@
Verhand@@
isieren
Schwellen@@
ssion@@
ultur@@
negativen
Behin@@
oms
Sowohl
druckt
beding@@
Augenblick
Erforder@@
el-@@
einigt
Datum
volles
Verein@@
ane
bie@@
bewahren
Tabak@@
ergänzen
tätigen
Nachhaltigkeit
Maria
1992
Haf@@
beschrän@@
Finnland
lia
mbur@@
geschäft
befasst
elegante
Ap@@
Kampf@@
Festival
1000
zwingen
Bestimmung
Andre@@
swerte
erst@@
ero@@
festlegen
strö@@
Verhaltens@@
250
glück@@
Semin@@
how
langer
Geschle@@
Expor@@
hinzugefügt
IL@@
Polizei@@
bearbeiten
vertei@@
veranstal@@
dere
25.
Tie@@
Straßburg
verringert
arti@@
entscheidenden
vat@@
helpful
Satelliten@@
schar@@
schir@@
Cle@@
Schulden@@
müsste
Wohnungen
tnissen
neun
Strände
Mie@@
pä@@
Fahrer
Presse
perfe@@
finanzieren
Zwischen
geniessen
Bestellungen
blei@@
Schwan@@
Drin@@
leihen
enswert
loser
Erweiter@@
Mechanismus
Repar@@
Senkung
ansehen
angemessenen
Aufzug
Mädchen
Zimmerbeschreibung
gäste
sterben
nö@@
Können
Die@@
radik@@
Bli@@
Tools
Verk@@
Eisen@@
vil@@
trei@@
stimm@@
gefährdet
fül@@
Übertragung
motiv@@
Vermögen@@
Fortsch@@
s.com
ument@@
Syste@@
Online@@
Bestand@@
site
GU@@
AU@@
Genau
Hohe
zö@@
schwierige
85
Widerstand
Dingen
Hostelsclub
eventuell
gemütliche
digitale
Schreiben
jedenfalls
Mur@@
Todes@@
Hindernisse
angewandt
Martin
wirkung
drau@@
great
ventionen
wider
gewählten
geregelt
Geträn@@
quellen
füllt
Flughaf@@
ag
not@@
parti@@
legi@@
A.
häu@@
Zü@@
Wähler
Ehe@@
ía
Eines
Mexiko
aux
hinweg
ont
eingesch@@
alisierte
lier@@
Jap@@
Journalisten
Tal
Mandat
Beseitigung
Beachtung
Peri@@
avec
auswählen
aria
verfahrens
Jahr@@
Werkzeug
arbeitungs@@
Todesstrafe
instal@@
Western
Angel@@
Gold@@
mittag
rates
bedeutenden
zügi@@
Kohäsionspolitik
zel@@
Tests
oftmals
Insgesamt
wonach
vorschlagen
ting
ieh@@
Parlamente
Sied@@
Premierminister
Jun@@
Ima@@
alisi@@
krank@@
Argumente
Vorstellungen
Anmerkungen
42
Gö@@
versteht
reserv@@
luxuri@@
erkunden
ungsa@@
Käufer
Berg
manchen
kehren
eten
Kommentare
Energieeffizienz
versammlung
Viel@@
nutzt
mili@@
unt
Schüler
Milch@@
professionellen
inclu@@
Erhaltung
alisieren
europäisches
Spitze
politi@@
kolle@@
riff@@
Renn@@
Bran@@
en-
müssten
fehlen
planen
flich
verwal@@
p-@@
reiben
verwendeten
Weiterentwicklung
fs@@
Sz@@
Will@@
Rab@@
Denken
¼
Spaziergang
bewerten
Elektron@@
löschen
Roman@@
Bestell@@
Differ@@
Com@@
Wasch@@
kamp@@
Mittelmeer@@
ès
Administra@@
Veranstaltungs@@
UNO
Plaza
ffe@@
spie@@
there
Wirksamkeit
Bay@@
reagiert
isch-@@
Keine
aufbauen
impor@@
Auflösung
Schließ@@
Allianz
ungsprogramm
tent@@
kali@@
Flughäfen
Bücher
Modus
Mechanismen
informationen
atemberau@@
stück@@
Europe
hebung
sste
Ausblick
#
Jugend
Präsenz
EW@@
Glei@@
bank@@
beeindruck@@
G-@@
dex
Up@@
ausser@@
Öff@@
IWF
chtigkeit
Proje@@
Entschei@@
pli@@
gig
hochwertigen
only
Festplatte
im@@
Einsatz@@
einma@@
Russlands
angebote
para
verletzt
Ker@@
Champ@@
att
Etik@@
Deutschlands
Roll@@
diger
schwere
wachen
befür@@
xe
überzeu@@
innovativen
Peter
gewöhnlich
Gas@@
kunfts@@
German
Sekunden
genheit
digungen
schw@@
Volkswirtschaften
höh@@
Wissenschaftler
Diesen
700
berühmte
rägen
chnungen
tags@@
Verwal@@
Tieren
sz@@
int
stanz@@
gang@@
trock@@
ale@@
desig@@
Paul
ly@@
spieler
Fried@@
schlag@@
herausra@@
Betriebe
igkeiten
änder
chri@@
Erwachsen@@
att@@
Kopf@@
Lernen
Immer
teu@@
umgehen
lenst@@
Archite@@
Parlamentar@@
ärer
anzunehmen
tain@@
Plu@@
hilfreich
Sieg
wirkliche
ete
stätigkeit
ney
Inflation
begrenz@@
verhältnis
Rin@@
domin@@
Jugendlichen
Foto@@
einhei@@
siden@@
aufzubauen
0.000
entstand
Radio
gerechte
i-@@
Hat
auffordern
kurse
tiefen
nachhal@@
kostenlosen
Urteil
Vertretern
Tan@@
TO@@
Kein
gelegene
Sicherheitspolitik
armen
uver@@
Filme
Wör@@
deiner
book
xt
wu@@
zug@@
ving
Pfei@@
Ze@@
seg@@
festzustellen
beschä@@
lex@@
Felder
charakter@@
illegale
herstellen
Luxemburg
Lau@@
chungen
anwenden
soeben
hundert
sist@@
Gewal@@
sprü@@
Que@@
Strei@@
europa@@
spunkt
1990
Ruf
Abstimmungs@@
missionen
definieren
Fehl@@
Zusammenhalt
voraus@@
annt
gescha@@
verstehe
ão
cla@@
tal@@
trägen
design
fikationen
problem
besteh@@
fizierung
elektronische
statten
empfängt
Effekt
enormen
Glauben
Oliven@@
blichen
datum
regierung
Verpack@@
Ort@@
Erst@@
tain
Staats-
erteilt
Open@@
aktualisiert
iges
FT@@
spüren
Dialogs
í
Hän@@
nächster
3,@@
italienische
lehr@@
natur@@
Himmel
ländliche
Sin@@
kämpf@@
Übrigen
zog
statt@@
Regional@@
-und
Sel@@
Email
öffent@@
Wett@@
Ausbau
bek@@
IV
Des@@
prakti@@
Werten
Beschäftig@@
But@@
31.
Ausrüstung
multilater@@
Höh@@
vorliegen
Bestätigung
GB
Übersicht
Rechn@@
gewidmet
Philosophie
gefährlich
fahrt@@
strand
küste
formular
Sicht@@
nehmbar
überwachen
Inf@@
Zerti@@
Orten
eingeleitet
dition
Tr@@
Lounge
Modernisierung
alisiert
gin@@
servi@@
legisla@@
ela
besonderes
Know-how
RS@@
konkret
Len@@
quelle
bit
mehrfach
artige
Gegner
Red@@
Vordergrund
beque@@
othe@@
IP
Vin@@
E-Mail-Adresse
Uns
Kabel@@
Agenturen
realist@@
schlü@@
fir@@
Wirtschaftspolitik
größter
bul@@
wissen@@
veröffentlichen
schungen
Serbien
ge-@@
gebäude
leitet
let
mung
ehemalige
Mängel
Niederlande
datei
Ferienwohnungen
stecken
Anwen@@
gkeiten
bedürf@@
wur@@
Tat@@
J
beseitigen
Mac@@
comfortable
20-@@
Stahl@@
Versammlung
´
gemütlichen
handels
cel@@
Pul@@
kas
Asi@@
telefon@@
Fußball@@
Schen@@
freier
Der@@
Hafen@@
Zuge
einheit@@
Nutzungs@@
49
schaff@@
Aussage
erstes
üblichen
1993
tru@@
pit@@
Universitäten
Akteure
lem
effizienter
riert
Mail
Menschenrecht@@
Nichtraucherzimmer
verbreitet
Typ
stätten
lah
öl
begrün@@
Gebäu@@
landschaft
offenbar
Prote@@
humanitären
licht@@
eingebracht
ura
Kyot@@
funktionen
kombiniert
virtu@@
dap@@
lossene
eb@@
Derzeit
ausgestattete
Updates
kü@@
ohn@@
integrierte
denjenigen
Argument
Traditionen
Ali@@
palästinensischen
willi@@
digit@@
Grundlagen
ano@@
Gebühren
Univers@@
umgehend
afrikanischen
stö@@
Bele@@
beunruhi@@
krimin@@
Ag@@
24.
PS@@
Ingenie@@
tzungen
Pflanzen@@
Original@@
konsequent
Fotogra@@
physi@@
erhoben
quote
.org
becken
werks
gestartet
U-@@
Edel@@
cen
sil@@
Zwar
die@@
Wert@@
vollem
Erfolge
schn@@
Werkzeuge
iertes
sonn@@
mau@@
Obama
enger
Pati@@
hinzu@@
bl@@
Vereinigte
Gau@@
chtungen
Wünschen
Assi@@
fon
Truppen
gebühr@@
Stück@@
gemeinsames
Prag
erwerben
ktiv@@
Mobil@@
mediterran@@
lieferung
Lager@@
ßte
Dänemark
ernst@@
nischen
ehe@@
hochwer@@
Minister@@
Abfall@@
kleinere
individu@@
Garten@@
paket
vorzunehmen
interne
Maxi@@
wahl@@
erfol@@
früh
Media
PO@@
einsei@@
regionen
Volksgesundheit
Samm@@
Rennen
flexibel
Kolle@@
buch@@
grund
Zypern
pft
Krieges
maximal
eleganten
Gesicht@@
artigen
ffer
ellen@@
fot@@
südlichen
Shar@@
ökologischen
old
schaftliche
unterbrochen
Feuer@@
berichtet
gefühl
A3@@
kräften
Weiterhin
ausgegeben
schön@@
territori@@
arte@@
pflan@@
schriftliche
Export@@
halts@@
Is@@
dien
Wiederaufbau
ring
Übergang
schwedischen
geg@@
Gla@@
offiziell
ener
mäßigen
Gute
rein@@
120
defini@@
zeichnete
Palette
loss
yle
Grü@@
weichen
spür@@
formu@@
ziehung
kompliziert
überrascht
Za@@
Mü@@
rah@@
falsche
Bevor
ées
teuer
dal
komfortablen
erwiesen
Verwirklichung
Play@@
existieren
reis
Module
Themen@@
basis
wahl
Plenar@@
schö@@
Weine
EV@@
tradition@@
Tabelle
Schie@@
centre
set
Mail@@
höchst
Fassung
regelung
umfassen
light
mitglied
Top@@
beauftra@@
höher@@
ums@@
auber@@
rufe
kunden@@
Technologie@@
tagen
unzäh@@
maxi@@
gewicht
Automobil@@
bevölkerung
regi@@
keineswegs
Diagno@@
möglichkeit
samt
Ce@@
Ausarbeitung
zentraler
berge
gesellschaftlichen
merken
tis
meldung
bewegt
lok@@
bis@@
Bezeichnung
zugs@@
Religion
Berich@@
Schei@@
verblei@@
zir@@
ausländischen
Außen-
12.00
Ret@@
Prof@@
Plätze
sk
NL
geschnitten
baus
Geor@@
Maga@@
Bush
vertraut
ielen
Einzelheiten
Hot@@
box
ill@@
ska
out@@
chsten
stechn@@
ы@@
schwan@@
angehen
cal@@
vorgelegten
wachsende
strei@@
unterschiedlicher
Ablauf
Finanzierungs@@
Hardware
AB@@
anner
Miet@@
zahlungen
administra@@
model@@
kep@@
vir@@
verbindlich
Fig@@
Satz
Florenz
Modu@@
Monit@@
wand
Kürze
Besitz
intensiv
Gemeinschaften
tsch
verstän@@
zeigte
lock@@
schnei@@
abend
ł@@
Errichtung
Sektors
wün@@
neter
drückt
Motor
Lehrer
Adri@@
Lü@@
Vorgehensweise
sour@@
unterschied@@
komplexe
felder
dio
glichkeit
Sche@@
solch
Hör@@
korre@@
sing
hohes
Visi@@
Unternehmen@@
cep@@
Statistiken
neh@@
gkeits@@
Fast
zweiter
mass@@
ai
Fass@@
bert
Ursache
negative
dat@@
Zucker@@
Vertrag@@
produkten
angenehme
Events
kauf@@
Fans
Kr@@
redu@@
Clu@@
Mittwoch
findung
yo@@
Handlungs@@
selb@@
erleichtert
q
Zuverlässigkeit
ßer
stabili@@
Betrifft
widmen
kostenfrei
Verbrauchern
kter
vision
free
General
Via
infolge
zah@@
wunderschöne
Immobilien
Blut@@
zugeben
präzise
umfangreichen
schnitt
verursachen
Mischung
cer@@
herrsch@@
Hen@@
schreibt
Dro@@
liz@@
genießt
Abteilung
konkre@@
terror@@
Heu@@
herum
oni
suche
beibehalten
landwirtschaftlichen
ichtet
Klarheit
IN
vermittelt
lässi@@
erheben
Fun@@
Trä@@
russische
gewünschte
verbindungen
s.
rat@@
se-@@
hinaus@@
gegebenenfalls
ssystemen
antes
ь@@
blicken
Steigerung
Ausweitung
Stock@@
Slowakei
ermu@@
Zweiten
Kenntnisse
maßgeb@@
teuren
Extra@@
funk@@
Beach
Versprechen
leichte
schwar@@
Vene@@
Priva@@
grenzüberschreitenden
Australien
befürworten
22.
Gesicht
ungssysteme
genau@@
Glas@@
nötigen
Renten@@
Arbeitnehmern
niedrigen
mpro@@
fragt
typisch
eur
gebenen
stliche
komplexen
fika@@
Kennzeichnung
fertigung
kunde
mittelalter@@
sthe@@
Edition
Ereignis
benachtei@@
Landes@@
autor@@
moderner
realisiert
Brun@@
ode
Stabili@@
Strom
Sing@@
06
Dynamik
TH@@
Got@@
Hä@@
Heimat
Itali@@
rüstung
sozial@@
getreten
ausüben
anpassen
Wichtigkeit
fangen
mul@@
berechti@@
vertrauen
Publikum
fortsetzen
Offenheit
Schil@@
Integra@@
PP@@
bilität
Ehre
langem
Schicksal
Nizza
umt
Produktivität
Erreichung
Entschlossenheit
Gestal@@
stil
gela@@
vit@@
einiges
Zürich
Oli@@
Fleisch
Identi@@
freu@@
я
Anbindung
ez
wohnt
Funktionalität
rol
problemlos
BR@@
Versand@@
arabischen
bot
metern
Interess@@
unterschie@@
bürokra@@
alistische
sendung
bedroht
Mari@@
Organ@@
gering@@
zimmern
teg@@
Erschein@@
glob@@
Empfang
Freuen
05
Los
herbei@@
medizinische
Sachver@@
stung
ECU
fenster
anforderungen
Gemeinden
Weiß@@
Jose@@
ologischer
Cit@@
Alternativen
96
baut
Lok@@
drucken
Proze@@
Beru@@
wäch@@
termin@@
Betreiber
Lieferanten
stärksten
geringen
Bab@@
Seit@@
Schwarz@@
läufe
Pet@@
genauer
betriebe
erteilen
Geben
förderung
cts
Brand@@
Lager
tei@@
öffnet
02
manden
ssischen
Ordner
by@@
rücken
gegenüber@@
GNU
deutliche
ähnlichen
bewertet
AV@@
Start@@
PR@@
mitt@@
tausend
Hände
zuverlässi@@
stur@@
öse
kriterien
jüngste
ausführ@@
Lohn@@
Aspekten
systemen
bemerken@@
Kurz
many
position@@
Nachmittag
personen
Souveränität
Wich@@
komplex@@
alog
44
ket
Venedig
Kompetenzen
sprodu@@
film
uneingeschränkt
stän@@
Speich@@
1989
perman@@
situation
kontinuier@@
Existenz
dru@@
teur@@
Fortsetzung
sau@@
Wäh@@
Entwicklungshilfe
Prozeß
Vermittlungs@@
Office
Burg
geschäft@@
Laut
respektieren
ünsti@@
Schnittstelle
Boot
iehen
chts
dest@@
jährlichen
Soldaten
USD
excellent
mensch@@
wander@@
Zeitplan
Seele
Unterstütz@@
News
interessanten
Verbraucherschutz
schätzung
Lou@@
veran@@
finanzierung
Schä@@
gramm
ep@@
tifiziert
lassungen
befu@@
Rechen@@
e.@@
beabsichtigt
getrennt
software
Vorrang
tren@@
menge
Chan@@
Tor
zuführen
Eröffnung
ux
Person@@
Bauern@@
verursa@@
Problematik
fortsch@@
behauptet
fahrzeuge
Fabri@@
wöch@@
gerungen
generell
lei
morali@@
Ratifizierung
beteiligten
sich@@
Taten
kurzer
zivil@@
Behörde
Händler
steuer
web@@
entsch@@
Wetter
wunden
anzupassen
matisi@@
Produk@@
zusätz@@
TE@@
43
sebene
davor
Lateinamerika
derart
blin@@
vermutlich
Syrien
ehr
Alli@@
diszip@@
einstellen
entschei@@
IA
stücke
fi
Bewe@@
bat@@
Weltkrieg
Spezialisten
2012
meldungen
angekündigt
wäl@@
Shop
Banken@@
Industri@@
text
ausländische
Konvent
Eu@@
Flash
koordin@@
zurzeit
Fahrzeug
gingen
verarbeitet
dul@@
dou@@
Rou@@
23.
Autor
Meister@@
spf@@
Nichtraucherzonen
Гј@@
Hau@@
Interessen@@
parks
sätzen
gesetz
angeb@@
droh@@
Mitt@@
1991
Digital@@
kampf
höch@@
Mittelmeer
bor@@
Riv@@
Georgien
schönes
Fisch
kurzfrist@@
schwerwie@@
vermie@@
auswirken
Augen@@
lossenen
Objekt
Schreib@@
sprüche
ч@@
lische
Gebie@@
Solar@@
gelernt
klären
ichtung
beweisen
erarbeitet
Regi@@
Binnen@@
verarbeitung
maximale
Management@@
wirft
mlich
gebühren
pul@@
nisses
reibungs@@
trieben
hersteller
Erkenn@@
tar@@
-System
vertritt
Aussagen
Rezep@@
parlamentarischen
acht@@
anzuwenden
ice
endgültige
urt
Quell@@
Ausrichtung
sogenannte
effe@@
relevanten
Pun@@
Amerikas
Anfän@@
iken
Szen@@
bewegung
Kapazität
wies@@
gering
vereint
medizinischen
Prodi
demie
Bauern
gestatten
Mark@@
Häfen
Feu@@
ursprüngliche
ced
stattgefunden
glie@@
Tief@@
Wichtig
¶
spanische
Interpre@@
gebo@@
Centre
höchster
Protokolls
ea
CO
iran@@
Schle@@
Eri@@
erheblichen
10.@@
tauchen
bewußt
Clubs
privat@@
Bö@@
ypen
Heimat@@
Län@@
Verkaufs@@
gehörige
obligator@@
Mol@@
dat
leistet
Schluss@@
verurteilen
gebrachten
riff
Ly@@
bestimm@@
Durchsetzung
geringer
Stell@@
schenken
ford
ktur@@
VER@@
Glas
User
sicherh@@
Getränke
genehmi@@
geehrte
97
Pension
Gali@@
arbeiter
Anzeige
41
cle
zellen
geringe
WTO-@@
tele@@
Beschränkungen
inte@@
AL
stay
Bä@@
Seiten@@
ma-@@
Royal
Ci@@
lität
öffentlicher
Nahrungs@@
herunter@@
issen
marktes
close
Ministerpräsident
vin@@
dor
Zo@@
gramme
town
erstreckt
erweisen
Qualitä@@
ams
Solche
Händen
ata
Übernahme
Charme
Mac
gor@@
beinahe
bed
richtungen
verzichten
methode
ruhiger
Schnitt@@
hafter
nicht-@@
taus@@
eröffnen
standes
marquis
Weg@@
By@@
spiegeln
dend
ham
199@@
Menschheit
behandlung
gewöhn@@
Bürokratie
Rede@@
III
bess@@
mbar@@
besie@@
ago
Säu@@
könne
dasselbe
steuert
merkt
Laden
liegende
Nachdruck
Bett
aufnahme
Schne@@
bringung
Ern@@
normen
03
begegnen
Pot@@
Ausnahmen
din
wäsche
Gebir@@
Vorsitzenden
Ama@@
cho@@
Baum@@
Appartement
Präsentation
arbeiteten
Vertrieb
gehe
Weltwirtschaft
getro@@
cer
ichts
passieren
ziel
Vertre@@
Südo@@
argu@@
Glau@@
zustande
Minderheit
Arb@@
Kön@@
Ausbildungs@@
ked
Inhalten
Rotary
technischer
stür@@
Gut
invest@@
Gentoo
gerechnet
fasst
Training
kommen@@
einst
bliche
tigten
Südafrika
eigentliche
cro@@
Cy@@
\
CE@@
Dä@@
Öffent@@
bedauerlich
spektakul@@
gemessen
hie@@
29.
aussehen
lossen
Privatsphäre
kanischen
geeigneten
Umwel@@
boar@@
verteilung
Visu@@
zugestimmt
prin@@
wertvolle
Rückgang
heutzutage
Steuer
bisschen
Client
Wild@@
fairen
vielsei@@
schutzes
pen
Haushalts
flächen@@
prüf@@
Richt@@
Schmu@@
fur
Verfass@@
leitungen
empfiehlt
ritte
räsidentin
Haft@@
schend
mieren
gal@@
Leg@@
zugelassen
drängt
derselben
österreichischen
museum
exklusi@@
plätzen
prinzip
Stad@@
Stock
Kontra@@
LO@@
aufgeführt
chtungs@@
Phili@@
tos
integrieren
spre@@
Dau@@
Jung@@
nes
Terroristen
Coun@@
kus
Imm@@
passende
verwiesen
agent@@
Rent@@
habt
Sci@@
erarbeiten
kooper@@
Platz@@
Stufe
profi@@
Großen
atz
Konfiguration
personal
Kommissionspräsident
cket
tigem
platten
Gewinn
eignen
aufgestellt
lüssel@@
basieren
SCH@@
W-@@
Minibar
Meinungen
blieb
Drogen
wärts
rinzip
dieselben
erforderliche
TE
agnen
demo@@
Reich@@
bedau@@
Betracht
Residen@@
igungen
Italien@@
Kau@@
Konzern@@
trat
ika
team
ora@@
Storn@@
lege@@
fleisch
komfortabel
thi@@
Block@@
mechanismus
Rh@@
Anreize
Angabe
erwähnten
drängen
änderung
ständiger
ografie
Filter
vermieden
sofor@@
ved
Bildschirm
lebenden
Bewusstsein
engen
dün@@
Überwach@@
Reinigung
Fertig@@
Supp@@
fft
Konjunktur@@
ban
Innerhalb
Beste
hafen
figen
sierte
Hostel
gewinnt
Versicherungs@@
schlie@@
rad@@
dei@@
wünscht
Metall@@
dieselbe
Lit@@
top@@
kost@@
MB
dynami@@
zes
Poker@@
uth
å@@
Wä@@
elten
Stur@@
feste
befin@@
wirklichen
mechanismen
one@@
doppelt
Private
Train@@
herrschen
Vic@@
ž@@
ji@@
samkeit
Gärten
Verteidigungs@@
anerkennen
Zielsetzungen
bedienen
pal@@
um-@@
Spektrum
konzep@@
kohär@@
speziel@@
ph
Schuld
-Adresse
regionaler
Konvention
modernes
Einnahmen
ehrlich
steu@@
David
hofs
Mai@@
Schü@@
ür
fahrten
betten
wahre
schlechte
Kamp@@
Jer@@
Anbetracht
greift
ruf
bezeichnen
server
Revision
begründet
Jahre@@
beliebigen
erweise
gebe
kti@@
abgeben
unterwegs
Fremd@@
toler@@
26.
Börse
Bün@@
gehabt
Gef@@
ungen@@
Hall@@
Miner@@
befürwortet
Global
lindustrie
Rezession
val@@
verzer@@
geräten
Saf@@
Demonstra@@
etc
gänger@@
Wind
gesundheit@@
Netze
Summe
geld
gab@@
Klimawandels
SV
berührt
Distribution
gesun@@
verpflich@@
tationen
verbrauch
hir@@
eingeladen
ritts
Kohlen@@
Last@@
inakzeptabel
ult@@
orts
Team@@
vide@@
Zunahme
utt@@
Türen
zar@@
punkten
Zahn@@
plo@@
super
überwacht
Wälder
fuhren
Jugendliche
sproble@@
umso
absolute
tien
ausgewählten
ökonomische
angebotenen
popul@@
eindeutige
sburg
verschaffen
religiösen
Gesetzgeb@@
stützt
schwieriger
externe
Heil@@
ó
versehen
innen@@
about
Audio@@
fru@@
spek@@
Linien
übermitteln
Österrei@@
Handy
miß@@
linge
Mög@@
formuliert
Hilf@@
tigkeits@@
Versuche
Studien@@
Papier@@
größe
Geschäften
AS
ott
miert
Fakten
Musi@@
schöner
gran@@
Erhalt
kleineren
ima@@
ini
Fei@@
Abbau
Umweltfragen
id@@
kurz@@
mber@@
Bunde@@
chemische
Las
denheit
öhne
unterscheidet
kapazität
renommi@@
rischer
bezogen
investiert
zweck@@
West
tatsächlichen
terien
Lor@@
retten
Offi@@
su
dahin
Immun@@
Wissenschaft@@
gebraucht
Gebühr
U-Bahn@@
Breakfast
strasse
beschreibt
Mengen
lastung
oberen
located
effizienten
Verfahrens@@
ograph@@
kontinuierlich
Leiter
like
misch
Belastung
logi@@
künfte
automatische
Putin
verabschieden
gewalt@@
riffen
bestände
latz
Py@@
Tar@@
Garantien
gelangt
gül@@
informa@@
GAP
Wald
Sna@@
Bergen
other
Formulierung
Ol@@
verschie@@
coun@@
Impf@@
äume
vers
Für@@
Port
tic
Schnell@@
schneiden
ario
Speise@@
PRO@@
sul@@
Gäste@@
Schmer@@
Marina
kation
mobile
Aufnahmen
Energiequellen
chtigen
Profil
polnischen
musi@@
Mont@@
xis
mechan@@
Erarbeitung
28.
ligt
äuse
Gewi@@
ère
vorüber@@
gelegte
Ferien
Erdbe@@
konkur@@
fließen
Portal
Feier@@
Adobe
begeist@@
Wie@@
sischer
Palace
höhe
bedien@@
ways
26@@
verständnis
formationen
Hof
zehn@@
musikali@@
Alumini@@
Entspannen
gemeinsamer
Herkunfts@@
trop@@
kna@@
Spannungen
lans
Trend
Ergänzung
Osteuropa
enkt
Airbus
bestens
‘
Ato@@
Gas
Bürgerbeauftragten
Lück@@
new
Training@@
Edit@@
inbegriffen
kunst
kle@@
Kreu@@
eure
pper
zeichneten
eng@@
46
Entdecken
machten
gast@@
einzigar@@
soren
Brie@@
zwölf
mentiert
dung@@
eigenem
Gottes
gesichert
entschie@@
abgegeben
27@@
beeinflusst
erlassen
republik
bearbeitet
tetes
glaubt
industriellen
NG@@
inhal@@
hilfs@@
familien@@
terer
wanderung
reiz@@
erbaut
Bedienung
ambi@@
basierte
gerechtfertigt
Südti@@
Brücke
Bezir@@
Lissabon-Strategie
Est@@
phy@@
nachhaltig
pfer@@
Gebäuden
Smar@@
Zusammensetzung
sicherer
European
ausgesch@@
Erfolgs@@
hause
leidet
train@@
Geräten
verw@@
Zerstörung
ration@@
allge@@
Bay
breit
englischen
cas
spielte
-Sterne-Hotel
tikel
starkes
Umsatz
Herkunft
analy@@
m.
angemessen@@
Termin
ürz@@
gravier@@
derar@@
Histor@@
nukle@@
drit@@
Van
klus
Konsul@@
fühle
Finanzen
etten@@
igungs@@
gebunden
einführen
Unterhaltung
Safe
vergeben
Traum
iso@@
Anträge
Ah@@
gue
häusern
ous
bach
52
Mobili@@
Beschwerden
University
geplanten
Thomas
Verfahrens
low
Fremden@@
Frequ@@
Evalu@@
Erfol@@
Pack@@
kg
chan@@
komplex
ian
Manu@@
jemals
Haushalte
Rechnungshof
Fenst@@
konzept
rol@@
Lebensmittelsicherheit
Fernseher
Insel@@
Ressour@@
erfasst
Cockta@@
Million
Liberalen
Harmon@@
discher
älter
General@@
zunehmende
Operation
Intensi@@
`@@
ffenen
uell
mitglie@@
Bühne
Robert
Freihandels@@
Strah@@
Dampf@@
Konferenzen
Arbeitsp@@
Chancengleichheit
count
geladen
ration
krieg
hört
progra@@
vorbehalten
Wiederherstellung
aktualisieren
dd@@
vig@@
dachte
ländische
demokra@@
ни@@
err@@
unde@@
band
Halle
Fahrzeug@@
are@@
would
Express
kran@@
Frü@@
erlangen
lands@@
Gü@@
Danke
boden
kanische
ah
Wettbewerbs
Asy@@
händler
Einschränkungen
deutsch@@
tra
tsp@@
Fang@@
but@@
vorliegt
leid
beschleunigen
entsprech@@
projekte
stütz@@
will@@
ita
Image
Konstruktion
Verabschiedung
Gewinne
konvention@@
trennen
dies@@
2.0
Benutz@@
streng
Anima@@
nfalls
alleine
schreibungen
gter
angelegt
afri@@
menade
zzo
temper@@
frist@@
Mah@@
gesetzten
kritischen
Verordnungen
grundsätz@@
Erzeugung
47
Alpen
isla@@
namens
Demokraten
frischen
beruhen
späteren
zugute
Köln
hotel@@
versicherung
eingerichtete
herkömm@@
Laser@@
Famili@@
ablehnen
sprozess
51
orten
vielfältigen
ausstattung
Scho@@
fün@@
Migration
mismus
gegenseitigen
reiber
ichts@@
nali@@
sation
vere
gien
Nation
stamm@@
hül@@
tre
area
stattdessen
Illu@@
stimmte
Muster
basierten
bischen
gesprä@@
Steuerzahler
geziel@@
ausreichende
Verbün@@
Wahr@@
simp@@
George
Bewohner
organisierte
Phänomen
Ner@@
Verletzungen
sson
gratis
quali@@
tragung
bewahrt
zulässig
Arbeitgeber
nutzbar
Aufhebung
Neues
wun@@
Referendum
durchzusetzen
sprüchen
PDF
Auff@@
Compu@@
mittlere
häuf@@
gelingen
trie@@
Optimierung
ering
Engine@@
Apart@@
Dialo@@
kommunikation
Puerto
Drei
glaubwür@@
strä@@
realistisch
stab@@
ysi@@
Saal
Rubrik
Wesen
Stau@@
27.
Rahmenbedingungen
Wat@@
beruflichen
Menschenrechtsverletzungen
Hauptz@@
geachtet
einzig
viert
ingen
è
Alltag
verschle@@
dner
temp@@
registri@@
gio
bereitung
läss@@
geber@@
sende
win
last@@
Casin@@
flexible
bon@@
ausführlich
detaillierte
geschafft
Instru@@
Logik
Gemü@@
konzipiert
cing
pass
vorgehen
28@@
Funktion@@
teter
Wertpap@@
erlei
Hö@@
teilzunehmen
LE
Konflikt@@
ye
ttern
registriert
Nordi@@
gebene
ktiver
zwanzig
Brau@@
Schlag@@
ktivität
elemente
Pha@@
Jan@@
gebie@@
tum
eindeu@@
Repräsent@@
jo
Beurteilung
Überra@@
ök@@
li
Control@@
theore@@
Kurse
Theorie
verwöhnen
Anweisungen
normale
irische
ernsthafte
Tochter@@
schränken
errei@@
vierte
konto
süd@@
Human@@
Leuten
akte
val
Gerichten
jü@@
Luxus
UM@@
lichste
wirkungs@@
-St@@
Feder@@
Peti@@
LateRo@@
verzeichnen
messe
weitaus
ior
can@@
ava@@
04
if
Jugendher@@
§
New@@
angewiesen
verwalten
erend
steuerung
psych@@
gesucht
Umstände
ands
Gespräch
Rußland
UNG
Abgeordneter
interpre@@
otential
Bett@@
verl@@
burger
yl@@
Kle@@
ep
fühlt
geschlossenen
Komplettpreise
fair
Kreativität
gels
wis@@
Fax
Mallorca
gewinn@@
franzö@@
Mobiltele@@
xel
Verfolgung
verliehen
Konvergen@@
sierten
zeitgenö@@
Manche
EB@@
bilder
op
Handlungen
gerschaft
fortgesetzt
sser@@
Kommunikation@@
Eta@@
Free
voneinander
sonstige
spei@@
kommerziellen
Kuba
künst@@
feiern
staatlicher
to-@@
Funktionieren
·
Anti-@@
Luxus@@
Produzenten
Besuchern
Monop@@
vertreter
Begründung
registrieren
nehmen@@
itiative
Unternehmer
näh@@
Bezahlung
ni
Echtz@@
digte
vice
jap@@
büro
benannt
Sony
Ecke
Verlängerung
Stor@@
Zur@@
aufgerufen
Techniken
ös
führungen
Registri@@
they
angeschlossen
Bahn
transparent
Ev@@
lager
Kooperations@@
endgültigen
vorteil@@
beispiel@@
Fähr@@
planung
keiten
halb@@
einnehmen
Ähn@@
genes
Wahrung
ärm@@
bilater@@
chste
sters
eindrucks@@
gestellte
Nic@@
ely
Schluß@@
demokratisch
Sich@@
berichte
Ed@@
Fischereipolitik
g.
gangs@@
Marokko
Karten@@
typische
exklusiven
Attraktionen
Bewertungen
geschätzt
RI@@
konstruktive
monat@@
Anreise
Exper@@
stützen
servativen
top
schwung
angenommenen
bewirken
qualifizierte
erstklassi@@
nötige
Abstimmungen
Plus
Dublin
Opti@@
24-Stunden-Rezeption
programms
mpe
erstaun@@
Still@@
ordnungsgemäß
erhe@@
Künstler@@
kommun@@
Treff@@
mol@@
Konzepte
hervorra@@
Seh@@
erneuerbaren
ließen
überschrei@@
fahrts@@
Java
voran
Tickets
teilte
kulin@@
spätestens
materialien
ake
speich@@
Gewinner
kriti@@
wid@@
folio
antrags
auseinander@@
begrü@@
mation
empfin@@
läne
Besitzer
demonstri@@
lich-@@
mobili@@
ne-@@
Einschätzung
gutem
Studium
Ausgrenzung
side
herrliche
eigentlichen
inneren
übergeben
Aktionsp@@
Foundation
auti@@
annes
Flugzeuge
entlichen
Französisch
Touren
iet
bedauere
Island
Menschenrechten
eingeschränkt
9-@@
ausführen
regul@@
Ach@@
dargelegt
versicher@@
ahn
Hab@@
verlän@@
sprochen
Alters@@
israelischen
Darin
Kernel
abgesehen
gas
Experi@@
gie
Kreuz@@
vorran@@
72
lös@@
übt
Vel@@
chts@@
erreichte
erweiterten
verstärkte
Texti@@
po
leich@@
Dri@@
erhaf@@
Medizin
technologischen
hüb@@
reformen
Beratungen
Beamten
orientierte
Übernacht@@
Nie@@
adi@@
schil@@
tat@@
neben@@
Budapest
Orch@@
Sitzungen
real
anten@@
ärmsten
Vorgaben
vereinbarten
Anwesenheit
Flor@@
realen
eingeräumt
sinstru@@
gemä@@
mentar@@
Betrug
Datenschutz
Erwägung
bewiesen
einstimmig
extra
h-@@
technologische
Chal@@
ost@@
Art.
12.@@
ältere
Subventionen
Taste
Küchen@@
übersch@@
Ausbeutung
eintreten
stimmi@@
ow@@
biegen
Energiepolitik
realisieren
Shutt@@
respektiert
drück@@
Layo@@
Galerie
Büros
Solidar@@
schrau@@
Palästinen@@
Merkmale
katastrop@@
schau
schließe
unabhängi@@
erörtert
ror
irgendwo
Gran
frucht@@
Reit@@
hef@@
fertigt
ungsproje@@
Mehrwert
organis@@
й
Krisen
ruft
fliegen
schwier@@
het
hi
tär
verkauf
Verantwort@@
lehnt
Motto
Empf@@
house
ausdrück@@
Prak@@
Medika@@
reformi@@
grenzt
Transaktionen
aufgaben
Verla@@
union
nähe
Tennis@@
erfolgte
Aktivität
veranla@@
plötzlich
würdigen
Show
blä@@
Anregungen
Flugzeug
Erfahr@@
massi@@
Anrei@@
Hektar
angeben
card
uneingeschrän@@
Haushalt@@
Frühjahr
jeglicher
vi
Konzentration
EIN@@
1,5
Präzi@@
strit@@
fisch@@
Wärme@@
Angriffe
mithilfe
verhe@@
iz@@
Artik@@
med
kontrollen
gefährden
kompatibel
lokaler
Bisher
Soweit
verbesserte
effek@@
vorsieht
renn@@
Aktualisierung
begleiten
deutlichen
Gipfeltreffen
Grünbuch
post@@
Haut@@
berufen
hebt
Ufer
erwähnte
Unterlagen
54
gebau@@
Tel
TER@@
Herberge
Pflichten
Pflege
NRO
deckte
Zauber@@
Museu@@
asy
rennen
näch@@
Arbeitsgruppe
meistens
Kongress
Vorbe@@
Städ@@
Verluste
Stockhol@@
Unsicherheit
Strasse
fertigen
Export
demokratischer
globaler
wü@@
runde
Einwanderer
vernünftige
Metern
cle@@
Performance
Dy@@
fro@@
té
Ges@@
zentrali@@
Kapazitäten
Übersetzungen
Pie@@
außen@@
öffnete
modi@@
zeigten
Niemand
Kie@@
kurzfristig
tiefe
Öko@@
ado
natür@@
Playa
ables
geschoss
ungeh@@
Transfer
ie-@@
igt
cop@@
Cla@@
einzugehen
glau@@
Archiv
Währ@@
Zusammen
Energ@@
messer
Washington
israeli@@
C.
achtet
saison
Work@@
ungere@@
mon
ergeb@@
getötet
kreu@@
Konkurrenz
verwirklichen
Karriere
schüsse
gerer
kturen
mieten
handels@@
Dolo@@
Jack@@
qualifizierten
Cru@@
ô@@
gewis@@
ressourcen
ry@@
see@@
ро@@
nachdenken
Stro@@
Cra@@
era
ohnehin
fiziert
cti@@
interessieren
Aufenthalts@@
bist
Lehren
Branchen
derartigen
vergröß@@
MySQL
Stan@@
Gestatten
Rand
ille
Prozent@@
Behaup@@
Real@@
Außenminister
eingerichteten
fiel
Massage
Stei@@
freies
gefährliche
Sound
probleme
enttäuscht
einheit
I.
öder@@
phot@@
Zeh@@
außergewöhn@@
ditionen
dein
wärmung
Missbrauch
Veranstal@@
Fluggesellschaften
Gitar@@
ziger
ergänz@@
Erleb@@
mentieren
organisierten
ssten
nal
luft@@
falschen
Raums
örtlichen
Volkspartei
igte
Innovations@@
terungen
beurteilen
faire
freundliches
kommende
Java@@
seln
ate@@
Vertriebs@@
isse
DN@@
swer@@
stätte
Dir
Versicher@@
lohnt
ele
akzeptabel
gewachsen
Treibhausga@@
iesen
immt
Canon
oo
leister
gefangen
schlüsse
Community
hts
Referenz@@
chner
Fün@@
japanischen
sender
einheiten
vention@@
beabsichti@@
kompletten
Richter
litten
unverzicht@@
interessi@@
unerlässlich
grenzüberschreitende
Bis@@
ffer@@
geno@@
GN@@
verzö@@
konsequ@@
symboli@@
arat
Verfasser
ight
Aff@@
Abenteuer
frequ@@
fac@@
CR@@
Reaktionen
Getrei@@
Bewältigung
kan
kön@@
solide
exzell@@
Ass@@
abilität
Host@@
sektors
Feststellung
besticht
fuhr@@
hotels
schützt
exklusive
Stattdessen
gesonder@@
Herrschaft
3D-@@
search
sied@@
folglich
übermittelt
dreht
Rassismus
erläutert
bescha@@
ра@@
weißen
ckte
dest
fach
angeneh@@
beschreiben
best
Entscheidung@@
yt@@
les@@
sparungen
staates
ield
strenge
Vertretung
schlechten
deinen
Schatten
Press
Erbe
aufhin
Schlu@@
Cer@@
ehe
edi@@
teien
Betriebssystem
einhalten
inform@@
gesunden
gefährlichen
loses
Kräften
AN
Tempo
Drittstaaten
Äußerungen
verpflichten
austau@@
Patri@@
wiesen
gewünscht
Hügel
mün@@
kapital
alternative
Besteuerung
strengen
Vorfeld
nör@@
beschließen
erfreu@@
Vergnügen
utes
Erhol@@
fabri@@
fangs
heim@@
vermu@@
or-@@
geistigen
Eig@@
place
kritische
befrie@@
Balkan
richt
fluss
ners
Orts@@
Cri@@
hung
Seen
86
Konstru@@
Trink@@
ältesten
maler
Temperaturen
begeistert
Live
erworben
idealen
Dienstleistung
unterbreiten
tern@@
Lehre
Lot@@
Wartung
vorn
ener@@
Grundsätzen
Ausschüsse
vermögen
Kom@@
klassische
entscheidet
zwischen@@
Kirchen
schrittweise
Dritter
deutscher
spor@@
wettbewer@@
integri@@
Kabel
würfe
BO@@
Futter@@
länen
zunehmenden
Bol@@
Professor
Blan@@
musik
zeuge
Zurück@@
Amts@@
Realisierung
Beruf@@
forderung
Fro@@
automati@@
erläutern
opping
AT
unden@@
setzungen
größerer
bauten
sla@@
ignoriert
ermutigen
bezauber@@
Diszip@@
Güter
geholfen
Gefängnis
gestiegen
geograf@@
bezogene
schüssen
Geschenk
sh-@@
Mobile
aka@@
Dach
cyc@@
gebühr
tägliche
Schlacht@@
Dres@@
förmi@@
Download@@
uli@@
vorgesch@@
erneuerbare
4,@@
zeitig
spolitische
Rind@@
itt@@
Lasten
wirksamen
Dienstag
reform
arm
most
innere
menü
Cur@@
insofern
Intervention
Prävention
gängen
Mahl@@
Mand@@
unzureichend
Entwick@@
Flüchtlings@@
Anony@@
Rol@@
tritts@@
visi@@
erörtern
frisch
blatt
Geburt@@
Last
enorm
Kongre@@
Genuss
Fragestunde
ärm
idealer
Effekte
Trends
zuverlässig
beleu@@
vorange@@
gesammelt
mmi@@
verschmutzung
10-@@
Live-@@
Rä@@
gg@@
Gemäß
östlichen
gefäl@@
uch@@
Zit@@
lehnen
bindung
Friedens
Gepäckraum
Eigenschaft
hau@@
beruhi@@
hon@@
kultur
Vie@@
verlei@@
Pon@@
gesunde
dnis
ßen@@
come
keinesfalls
©
Ausfahrt
Billi@@
Zufriedenheit
max
Anhörung
Temperatur
EG-@@
unteren
suite
Rande
cus
Data
ones
gesam@@
abwechslungs@@
Empfänger
orientiert
eile
Schengen-@@
Arzt
forderte
geschlagen
Medikamente
abhängi@@
Fur@@
rift
sso
stabile
ministerium
einzelner
schmerz@@
Regimes
netze
iele
ausgelöst
karten@@
implemen@@
regelmäß@@
gischer
Instruments
wachsen@@
ffene
völ@@
live
seit@@
Aro@@
rechtfertigen
mündlichen
gebrochen
negativ
verkün@@
verwaltet
gerte
Caf@@
illa
ratifiziert
berühm@@
wässern
Manchmal
Refor@@
ansonsten
geeig@@
zon@@
USS
Tipps
XP
Heimatland
änder@@
Fünf@@
ann
tform
grade
Arbeitnehmer@@
ih@@
bilateralen
Gir@@
freiem
spruch
Wär@@
ssionen
gewiss@@
eiter@@
ethn@@
downlo@@
Schutzes
Bilanz
Simu@@
überwiegend
Service-@@
Eintrag
internationales
Bewegungen
Beam@@
ürzt
EE@@
neueste
jeweilige
Verkauf@@
fän@@
Fle@@
rieb@@
Taus@@
ora
Medizin@@
Beschäftigten
Deine
Betroffenen
fron@@
damerika
Wall@@
vernünftig
ros
entliche
Brow@@
Erkenntnisse
Abstand
Möchten
gewe@@
präsent@@
Problem@@
Intere@@
alist
endgültig
vergleichen
Reform@@
umen
Arznei@@
reine
grüne
eingebunden
kritisiert
opti@@
qualita@@
Eink@@
wässer
Features
Lieb@@
apeu@@
Skrip@@
Gerä@@
Bern@@
kamera
been
Standard-@@
PA
View
Bou@@
restau@@
Lösungs@@
Zahlreiche
Flüge
gekauft
serva@@
zufrie@@
konsul@@
berufliche
Unterzeichnung
abkommens
richt@@
Gewähr@@
bein@@
Frühstück@@
Katastrophen
konom@@
Verbrau@@
Ema@@
stü@@
BMW
Ausstellungen
Berei@@
hand
но@@
Gegenwart
betrag
züglich
Inkrafttreten
Lig@@
dik@@
apart@@
Ambi@@
ausgedeh@@
Tochter
irak@@
intere@@
Flug
teilten
Schwimmbad
üblich
gramms
trau@@
Part@@
Key@@
Beruf
DO@@
ton@@
ssicherheit
hiermit
Sex@@
Vermittlung
periode
Room
vorsichtig
gro
disku@@
ball@@
Investition
Valen@@
gefällt
Lebensmitteln
Les
teilgenommen
Bildschir@@
keit
4-Sterne-Hotel
intensive
Wille
asy@@
aup@@
Anhänger
erinnere
Gebur@@
Erleben
ax@@
Finanzmärkte
Hotelsafe
prak@@
Aktien
Job@@
steigenden
ı@@
effizien@@
kore@@
Überarbeitung
ME@@
Beratungs@@
ungsweise
angeblich
abschließend
Einwohnern
56
verbindliche
Café
tika
Rak@@
Corporate
53
Armen
E-Fraktion
Dich
terium
chnen
Kathedrale
Kün@@
Wochen@@
engag@@
schafter
kennen@@
Gesetzes@@
riesige
Feld@@
Merk@@
Ries@@
alisier@@
Hierbei
unterbreitet
bedenken
fel
ökologische
parallel
Dre@@
ex
Stadtteil
Free@@
Tschechischen
Beachten
Internetseite
angen
Weltbank
ato@@
Mega@@
Transpor@@
ppen@@
svor@@
llen
Textil@@
3D
CD@@
kritisch
verschiedensten
ssigen
Moskau
US-Dollar
sprachigen
luxuriöse
Wit@@
gelöscht
Glob@@
fischen
v.
spunkte
Kompro@@
Autoren
startet
überwach@@
que@@
wolle
GA@@
Provi@@
Subsidiarität
Beschluß
garan@@
grü@@
gewisser
Föderation
Zeichen@@
information
Gesprächen
wen
Indem
erzielten
Tragödie
book@@
vieren
Jar@@
Vereinigung
ville
kap@@
deb@@
Transa@@
äufe
beschei@@
Jag@@
Palästinenser
traum@@
Minist@@
Jahrzehnte
einzigartig
bevorstehenden
Landwir@@
gerichts@@
Tisch@@
vereinfachen
Mä@@
beliebten
bens
vest@@
Befehl
Litauen
K-@@
stunde
außerord@@
kommerzielle
wick@@
mitgeteilt
zielen
gänger
della
Stär@@
Juni@@
Vergleich@@
reichung
lux@@
Amtszeit
niedriger
droht
Rahmenprogramm
Gelände
günst@@
ish
E-Mails
Erste
Ausgangs@@
Lea@@
Implementierung
sorgfäl@@
beträchtliche
ruhen
hinein
Sowjetunion
lé@@
Weiterbildung
bricht
Unabhängi@@
analysieren
multination@@
DA
Balkan@@
Fremdenverkehr
Inspe@@
teln
SM@@
frist
führender
beizutragen
ühr@@
grundlegender
gien@@
info
verhäl@@
Sun@@
USB-@@
Swimmingpool
Budget
vereinbar@@
ception
quip@@
Schnee@@
gewählte
bewaff@@
wunsch
Versorgungs@@
Schwimm@@
start
Gil@@
some
Informa@@
і@@
übersetzt
supp@@
sprechend
wirkungen
Fire@@
grau@@
kel@@
Amp@@
Schal@@
fertig@@
persön@@
engagiert
pap@@
frag@@
gerweise
haltenen
genehmigt
PDF-@@
Berater
Gew@@
Festiv@@
Musli@@
tat
Fut@@
angepa@@
sier@@
gebucht
Hamas
blen
löst
beider
gemü@@
schaden
Arbeitsbedingungen
rats
lossen@@
jährliche
berat@@
Aka@@
Geschäftsbedingungen
Ash@@
Aufwand
Skype
ML-@@
archi@@
klarer
Spre@@
Tee
tate
Multimedi@@
ritts@@
Home
ethnischen
68
Analysen
Ank@@
Uhr@@
harte
Tö@@
würdig
partei@@
Einkommens@@
Überein@@
mischung
Variante
GR@@
ose
Marketing@@
gegenseitig
bungs@@
Islam
grenzung
Leidenschaft
Power
einla@@
beseitigt
Ernährung
Israels
geordnet
malerischen
compu@@
-F@@
Dikt@@
Sonn@@
veranstaltungen
Dal@@
Micro@@
Wh@@
par
landes
Gemeinsam
Rechtsa@@
Reihenfolge
sonstigen
format
trags@@
derjenigen
nützliche
Lebensqualität
Installations@@
Designer
ко@@
zeige
status
Richtlinien@@
Panora@@
Ratsvorsitzes
niedrig
Vista
ppt
herunter
weiterzu@@
Arbeiter
Zugleich
verträ@@
univers@@
iser
Güter@@
quisi@@
Gewerkschaften
aufweisen
echt
H-0@@
zit
‚
ungsprogramme
Einzelnen
unterst@@
ausgelegt
small
aufwand
gelung
behinderten@@
Ruhe@@
här@@
deutet
gst
star
Material@@
irgendwelche
Il@@
59
Industriel@@
92
haltene
ants
Neuigkeiten
vorkommen
ernste
Infe@@
Halbinsel
kenntnisse
vielfältige
Mach@@
66
cour@@
prüfung
Index
itu@@
zität
unterhalten
Justiz@@
ami@@
kenntnis
d.@@
sames
Libanon
einher@@
iPhone
mater@@
Wachstums
Kompon@@
Snow@@
stär@@
angefangen
erien
Unterdrückung
Reich
Box
befürworte
längere
verbra@@
langt
001
zent
Event
USB
Top
vorherigen
NI
vorherige
Versu@@
dbar
warmen
fließ@@
komplet@@
int-@@
leidung
Selb@@
splan@@
sätz@@
ding@@
untergraben
Vizep@@
schmu@@
CS
Ursprung
Gipfels
straßen
Nicht-@@
Life
Wü@@
Wiener
Kandidaten@@
Scheitern
ctr@@
Arzneimittel
hows
Kanal
schin@@
mengen
Erwer@@
EC
Nort@@
Mehrere
Kolum@@
liday
Ira@@
fang
breites
Sozialdemokraten
5,@@
geführten
span@@
klär@@
M.
Moderne
geschwindigkeit
Eigentümer
jahrel@@
beiträgt
Fertigung
aufeinander
vernachlässi@@
bekanntesten
Mazedonien
Verkäufer
verfüg@@
wichti@@
trauri@@
don
Vorsitzender
lichkeits@@
EM
jähriger
eben@@
makro@@
gesellschaftliche
konsoli@@
einmalige
hä@@
Voraus
mma
gerichtete
fter
Gerne
Nat@@
bedingt
andau@@
itz
anmelden
geschrit@@
Mani@@
ligkeit
hungen
kontin@@
Universi@@
kür@@
Deutsch@@
n-@@
non
gegenseitige
stunden
vorausse@@
stößt
einziges
bi
could
schrieb
Kaffee@@
gangenen
aktivitäten
Lande@@
Kunststoff@@
vierten
antrag
NI@@
stischer
ason@@
Zimmerservice
niederländischen
reichen@@
я@@
tels
unterliegt
ix
ith@@
mäßigkeit
beteili@@
tini
Segel@@
Anhang
Bibliothe@@
versuche
verleiht
Physi@@
zentr@@
stabilen
gressi@@
effektiver
aket
CHF
tee
verabschie@@
seits
zerstör@@
lis
stärkt
Zubehör
ay
Malta
Liqui@@
Ministerrat
schuldigen
einzuhalten
entrum
Ausübung
regelmäßigen
ular@@
arab@@
Aussichten
bol@@
vorhin
glücklich
base
Datenbanken
Alkoh@@
loss@@
в
programmi@@
Absichten
Umweltschutz@@
zurückkehren
Folglich
Maastr@@
veni@@
schnitte
Logo
zivi@@
griff
tausende
spart
votes
Kreis@@
Ari@@
Mehrwertsteuer
Intelligen@@
notwendi@@
schlechter
UT@@
Ankündigung
NAT@@
aufgehoben
bieter
Dol@@
board
Gegenstände
getestet
Frühstücks@@
nennt
71
örung
uropäischen
teres
erober@@
genommene
led
gä@@
Konsultation
Inhaber
Zäh@@
legiti@@
verbot
UNES@@
Einheiten
ausgewo@@
Flüchtlin@@
ature
provi@@
Well@@
schlage
Frage@@
istisch
Buchungs@@
Eintritt
later@@
Oze@@
Chr.
tan
gerade@@
olen
pas
wenigstens
Übereinkommens
Kil@@
stöße
anschluss
Tagungs@@
Contain@@
Versand
Ein-
Zinsen
Ausgang
agieren
Golfplatz
beeinträchtigt
gesundheits@@
denselben
Erzeuger
iti
nehmenden
UND
Wand@@
Stabilitätsp@@
bezahl@@
Vorbereitungen
Ferr@@
tung@@
EU-Ebene
Subsidiaritätsp@@
Stahl
Skla@@
Hann@@
Van@@
Telekommunika@@
ungsprozesses
abteilung
haupt@@
prei@@
Kopie
unvergesslichen
tend
bestellt
Präsidentschafts@@
konstitu@@
utzen
blü@@
rang@@
Central
cat@@
Instrumenten
passenden
Blick@@
Resolution
strate@@
car
Lobby
wendung
Generaldire@@
Kredite
onom@@
rent@@
runden
Isla@@
Finanzmittel
amp@@
gebrau@@
rasche
een
robu@@
Entschließungs@@
Zigar@@
Grafiken
Spuren
PL@@
Zuschau@@
Thermal@@
night
Strateg@@
geograph@@
bewertung
Aufträge
Main@@
ungarischen
belegt
Whirlpool
optimalen
nord@@
unan@@
Audi@@
Koordination
ausgewogenen
Reh@@
ons@@
wechselt
58
Regionalpolitik
wirtschaftung
Verträgen
Empfän@@
forderten
esischen
orientierten
vielfalt
fassungs@@
tzimmer
Ky@@
zukunfts@@
gemäße
MI@@
ople
ktors
80@@
Ds
tellektu@@
Aufforderung
ignorieren
ssige
sexuellen
GE
main
Doll@@
Gastfreundschaft
NO@@
Flotte
Abschluß
wissenschaften
Sand
aufre@@
amtierender
Gewe@@
wirtschafts@@
Untersuchungs@@
Kongress@@
Speicher
tensi@@
Einschränkung
Elementen
personenbezogenen
genü@@
durchsetzen
Berichterstattern
Party
Mala@@
ausgestatteten
scheu@@
Partnerschaften
Prop@@
Suchen
glicher
potenti@@
Lobby@@
normal
Kontak@@
Swiss
höchst@@
Deck@@
chterung
Hierzu
einzur@@
ssa
Perspektiven
Millenni@@
digten
Not
Haushaltsplans
stic
größtenteils
nier
Montage
Verzögerung
Verantwortlichen
fluss@@
Freien
der-@@
Quoten
Sämtliche
stall@@
zy
interessan@@
bö@@
Zuständigkeiten
Virus
auseinander
gäbe
Sorgfalt
anteil
leiste
punkt@@
High-@@
ests
schluß
E-Commer@@
Ökono@@
High
Verhäl@@
umfassendes
Mittelmeerraum
Pharma@@
Wahrscheinlichkeit
Landwirtschafts@@
faktor
verständ@@
Scre@@
Legislativ@@
konfli@@
TV-@@
SA
offenkun@@
Än@@
Minde@@
Dur@@
Infra@@
reale
genauen
erleb@@
Schlei@@
gge
zukünftig
kom@@
kompetenz
diesmal
Diensten
Große
verschieben
wunderbare
Stimmung
lingen
eingeben
Verzögerungen
mor
Kernkraft@@
täu@@
Vizepräsident
einzubeziehen
schlimmer
Transi@@
SC@@
gelände
ison@@
Bör@@
bietern
flüge
block@@
stün@@
Entwicklungszusammenarbeit
Heran@@
gleicher
iner
Taiwan
dresse
weitergegeben
analyse
Zuerst
Kommissar@@
CDs
Check-@@
anbietet
diensten
amerik@@
sor
betrug
zusammenzuarbeiten
verhandeln
analysiert
Regulierungs@@
bran@@
Wohlbefinden
Maus@@
gebilligt
Fahrrad@@
agne
Beobachter
Very
günstiger
drehen
Leh@@
And@@
Schwier@@
Beweise
gesell@@
asiatischen
quar@@
erschein@@
leichten
ron
verliert
Shi@@
Slo@@
Kamer@@
Salzburg
hang
xis@@
rie
Är@@
mmt
60@@
änge
Haust@@
Flach@@
ernden
eingang
sprochenen
einzurichten
Speku@@
KO@@
vorne
Gelegenheiten
reib@@
Ideal
Gaz@@
deli@@
Fair@@
entran@@
bekräf@@
Gastr@@
Charak@@
verschoben
träger
Pay@@
Geo@@
benutzer@@
zustand
handlungen
berechtigten
strafrecht@@
dazu@@
Marktwirtschaft
jun@@
bekräftigt
überlegen
schwerer
größt@@
Psych@@
buil@@
Pack
Auslegung
Wetter@@
Völ@@
prote@@
nnen
gna@@
wendungen
Pilot@@
Kommentar
Feuer
Verhältnisse
Master@@
handelte
grammen
stationen
Bosnien
Verein
gerechten
fundament@@
Feh@@
Wellness
priv@@
sun@@
schiff
Km
Wechsel
zahlreicher
Slowenien
lab@@
Auswahl@@
Fischer@@
dekor@@
schli@@
Schattenberichterstat@@
now
ausgebaut
eistungen
womit
finanziell
hanta@@
Kreis
konstruktiven
sat@@
Architekten
stechnologie
Whi@@
bedro@@
gelang
jour@@
té@@
Leistungsfähigkeit
mut
Statistik
tle
iera
Inner@@
Schienen@@
gebir@@
when
aufrechterhalten
Verteidigungspolitik
Initiativ@@
Aufruf
klimatisi@@
Engli@@
sinn
wit@@
Klick
nehmern
bedeutendsten
fristig
Thailand
wesens
57
Netzes
gemi@@
Kämpf@@
Schokol@@
versetzt
räder
Consult@@
freundlicher
nördlichen
Green
reihe
Komponente
Stein
Word@@
ordnen
verehrten
ty@@
sämtlichen
τ@@
CO2-@@
alter@@
langjährige
kunft@@
entworfen
tisierung
eim@@
Kompromis@@
minutes
elte
stal
Memor@@
GV@@
Sortiment
Disku@@
konz@@
berühr@@
wandern
alist@@
Vermie@@
Parks
hyth@@
schliesslich
mehrerer
bestimmung
sspra@@
Ton
Stuttgart
Direkt
unvergess@@
Argentinien
Lt@@
zione
ermitteln
fig@@
itionen
geklärt
Energieversorgung
zauber@@
umgekehrt
strategien
Hit@@
Genf
streichen
mium
lief
Tatsachen
südlich
Entstehung
Anders
Wettbewerb@@
Hintergrund@@
drücke
plant
nament@@
Europa-@@
eff@@
PD@@
ergebnisse
DIE
ita@@
Mode
Franc@@
eingereichten
minuten
Meere@@
friedlichen
verbun@@
rechnung
kör@@
Fleisch@@
besseres
Busse
Schmi@@
schuss
wuchs
Effektivität
Unserer
Bug@@
unmittel@@
abends
wiegend
aktion
effektiven
Dolmet@@
Entschließungen
debat@@
türkische
Kohärenz
kontroll@@
Jahrhunder@@
Square
besetzt
Original
ING
klares
Textes
GM@@
starker
Akzep@@
Entfer@@
ites
Bak@@
nachvoll@@
Video-@@
bst@@
88
verglichen
fache
zugän@@
maßgeschnei@@
bele@@
band@@
wofür
Abon@@
räum@@
benachrichtigt
Legitimität
Theater@@
äußerung
verband
AID@@
genügt
zweitens
run@@
Siehe
griechische
verhältnisse
Mul@@
Fax@@
WW@@
uropa
ruhe
Schiffs@@
Nationalpark
korrigieren
geteilt
beein@@
anfän@@
unabding@@
Bedingung
übrig
widri@@
Chemik@@
Klet@@
Armuts@@
ison
line@@
Barcelon@@
Berlin@@
ank
elegan@@
Entschließungsanträge
weisungen
án
Solange
ausführliche
Kais@@
Christen
akzept@@
vorhandene
ple@@
mehrmals
elen
ungeachtet
Geschen@@
geord@@
gewiss
spri@@
cure
schuldig
mbry@@
bürger
Palästina
gets
unterstreicht
change
Wass@@
außergewöhnliche
Quer@@
Benutzern
iPo@@
Deb@@
Kommand@@
Apple
zutiefst
Unionsbür@@
Zustellbetten
biologischen
pop@@
zerstören
Erreichen
Belast@@
renovierte
stabil
bestä@@
Dienstleist@@
Sehen
inischen
stattung
Flexi@@
Berechnung
Sad@@
willigen
Einwände
Hunder@@
Europol
ц@@
dauerhafte
schiff@@
haushalt
wäss@@
Abgesehen
Piazza
archite@@
Verkehrsmittel
sign@@
endete
Source
ctions
UC@@
beliebt
rungen
ald
Bom@@
Besichti@@
Hoff@@
durchschnittlich
Kron@@
Doppelbett
Bul@@
chambres
ani@@
schalter
Konflikts
Straft@@
gewo@@
wies
Kommissionsvorschlag
ani
korrig@@
weich@@
Bier
Fuss
Eleganz
Milliar@@
palette
Egal
fung@@
ston
bat
errichten
Nord
Hochschul@@
beschlu@@
wus@@
verknüpft
Anzeichen
fischer
stärkeren
optimieren
900
Erstellen
Nuklear@@
Integrität
uc@@
enten@@
Toilet@@
wünschenswert
eich@@
weitem
ärz@@
May@@
ferenzen
Anmerkung
Vorbild
op-@@
Kluft
Vogel@@
por
Energies@@
mission
Redu@@
Preis-Leistungs@@
chtern
Spielraum
ure@@
Zugangs@@
facilities
dierte
diverse
Sensi@@
Zulassung
einzelstaatlichen
Ty@@
Steh@@
verankert
Besonderheiten
Peter@@
Trag@@
wachst@@
benötigten
Leist@@
Baby@@
Kühl@@
ela@@
annte
stungen
Behand@@
stattet
bedauern
м
Ebenfalls
67
gewann
kirche
wak@@
-Ster@@
Leid
Spazier@@
Studios
cy@@
Ereignissen
Brief
Associ@@
Cir@@
Kreatur
prü@@
gültigen
häufiger
Alterna@@
gericht@@
Begriffe
Verstärkung
sele@@
U-Bahn
dauerhaft
genie@@
LAF
Progno@@
endem
Beendigung
Paket@@
bieren
Acht
org
American
unmittelbaren
steuropäischen
landwirtschaftliche
erlau@@
gipfel
ssa@@
passi@@
schnelles
korrekte
Taxi
hauses
Koali@@
fut@@
Satelli@@
Tot@@
sing@@
Tendenz
zuverlässige
Defizite
Develop@@
dol@@
Nero
Barb@@
Klar@@
wieweit
Spielern
sle@@
ströme
Toler@@
Rio
großartige
Agen@@
bereitstellen
entstan@@
wenigsten
gefolgt
Domin@@
ø@@
schwedische
erschienen
Fokus
Neu
geho@@
Partei@@
Casa
Il
sposi@@
mandem
strebungen
Auseinandersetzung
Zau@@
vereinfacht
ures
Hub@@
schwarzen
Schnei@@
belgischen
Governance
ling@@
hen@@
Einblick
ying
junger
erweiterte
Kommissare
Zusammenbruch
Rhein@@
defizit
Arbeitsweise
cie@@
still@@
craft
Infos
beliebtesten
vermehr@@
verhandlungen
anspruch@@
sisch
Opfern
verkauf@@
dahin@@
Statt
fig
tolle
dynamischen
Kühlschrank
gentur
ergie
CP@@
Lieblings@@
kommission
verschlüssel@@
durchgeführten
begangen
industrielle
Stränden
ical
anstelle
nutzung
abzielen
Gegenwärtig
länge
Vorredner
list
Vielmehr
parlamentarische
chemischen
geschmackvoll
Mode@@
Organen
Wun@@
geräumigen
Ot@@
unterhalb
anfangen
Heiz@@
Gru@@
Zwecken
cou@@
tempor@@
entsp@@
frische
Jahrzehnt
forn@@
stärke
rise
bereichs
Abfälle
Termine
ffin@@
Sol
ж@@
Ersatz
Award
begreifen
modelle
Stä@@
müsse
bereitschaft
alls
angs@@
Zwangs@@
Board
Musk@@
Explorer
Noti@@
gliederung
chil@@
friedliche
Reichtum
anern
ř@@
iten
konstan@@
Magi@@
Libyen
Zellen
Gesetzes
Geschichten
untereinander
hn@@
manager
enor@@
einzustellen
Durchschnitt
latt
gezielt
Simbabwe
Wunder
Heiligen
hinzuzufügen
charman@@
beur@@
gescho@@
Hinsichtlich
tauschen
hre@@
renov@@
hilfe@@
VIS
Projektes
vorangegangenen
stufen
betreibt
orie
ě@@
Internation@@
Konzert
Fehlen
ditions@@
FOR@@
Brutto@@
Kalender
yed
Ansprechpartner
gerichteten
säm@@
Sha@@
bereitzustellen
belegen
Mühe
Kameras
firmen
reichende
Game@@
hinterlassen
Substanzen
enzimmer
Business@@
Route
ganda
Errungen@@
extra@@
Weißbuch
gebra@@
direkter
mache
Singap@@
Stütz@@
Lä@@
heil@@
maß
SW@@
Nichts
Gletsch@@
Ate@@
projekt
allgemein@@
Workshops
Beton@@
saubere
ewi@@
alisierungs@@
verschwinden
bewirkt
Verpackung
finanzieller
rent
wickelt
gegebenen
ror@@
gehörte
auszuüben
Oran@@
Konzerte
atorium
Män@@
laufende
wimm@@
berger
Abwicklung
Sekre@@
kämpft
Ärzte
Origin@@
Arbeitskräfte
geehr@@
anwendungen
Dringlichkeit
CN@@
Apar@@
le-Distribution
wurf
Mauer
ausbildung
dreh@@
Stich@@
Defizi@@
maler@@
ausgedrückt
schreibung
irgendeiner
6,@@
veröffentlichten
verstoßen
berich@@
fähi@@
Stil@@
Point
Internetseiten
gesorgt
geschütz@@
igste
Gerichtshofs
zip@@
Zentr@@
Porto
Campingplatz
optionen
Standar@@
Vorsitzende
.-
stoppen
traditionell
You
Ec@@
mark
bevor@@
Foren
Blut
gelegent@@
hre
brech@@
gebenden
lass
B5-0@@
spart@@
63
packen
eto@@
Wurzeln
Präsidium
James
Genu@@
Ferienhaus
läub@@
Kosme@@
erschien
schäden
ull@@
ahnen
ose@@
tui@@
überwäl@@
erdem
tier
kir@@
erstens
exper@@
Ticket
ental
Tschetschen@@
tas
arbei@@
ho
gericht
zwangsläufig
beitreten
liges
kamer@@
Teilnehmern
hs
EP
ssische
82
ausgewählte
Guide
revolution@@
amerikanischer
num@@
Befrei@@
Gor@@
ellem
erfor@@
Festung
mobilen
kl
sar
other@@
auftritt
Einladung
α@@
Automobilindustrie
rec@@
umfass@@
Ganzes
zweimal
sprechung
absur@@
berg@@
listet
funden
holz
Digital
nit@@
Sig@@
emo@@
ölle
Wach@@
pran@@
Gebrau@@
Vermeidung
kodex
Frankreichs
H-@@
flexi@@
uti@@
rif@@
Freie
Control
Digit@@
bün@@
persönlicher
anderswo
getren@@
Konf@@
gelö@@
dynamische
Zeile
Jahresbericht
One
Ausgleich
Jugoslawien
zugreifen
Berichterstat@@
strom
schulden
dänischen
bä@@
Landschaften
qm
bo
urop@@
Audio
aktiver
Bed
musli@@
Konkur@@
unweit
Tunesien
Einkauf@@
Dörfer
schicht
gebor@@
Spon@@
Kompromisse
Rock
Aufnahme@@
wimmen
Black@@
Virtu@@
Ever@@
kes
deutlicher
Kohäsions@@
Währungen
IC
mär@@
Nik@@
winkel
überflü@@
Radi@@
erfahrenen
Ero@@
durchgesetzt
Stellenwert
oberfläche
rüger@@
GT@@
93
klausel
abgehalten
Herstell@@
digkeit
sexuelle
fähiger
Moz@@
banken
zweit@@
qui
mündliche
Formul@@
Gesellschafts@@
ordan@@
entwickel@@
Betrugs@@
verschär@@
erwe@@
steigert
Elektri@@
9,@@
zeitraum
betreuung
automatischen
Alkohol
inne
islamischen
attraktive
AD
flä@@
fikat
Staatsbür@@
too
Spra@@
Kooper@@
Bit@@
Möbel
benö@@
Menschenhandel
ständiges
späten
männ@@
Mitarbeiter@@
Wettbewer@@
Gemüse
Doh@@
gesetzlich
Umgeb@@
ahrt
Tanz@@
prozess
Zielsetzung
ris
Verbrauch
ßig
stehe
sorten
burgh
Übersetzungs@@
Emo@@
verteilen
harten
uld
energ@@
initi@@
Rout@@
Operationen
Quartal
HO@@
Kolon@@
Indonesien
ummi@@
Nokia
Radio@@
lätzen
familie
Aufgaben@@
Insofern
Hypothe@@
zel
anischer
veaus
Plugin
GO
Himm@@
cations
Nahrungsmittel
Wies@@
ausgearbeitet
their
müßte
verbieten
Front
gerin
stad@@
fehler
strecke
gebil@@
hielten
preisen
ward
Informations-
Niger@@
Ansätze
Büro@@
dener
mentsprechend
einschlä@@
Sili@@
ühle
abstimmung
Rechtsan@@
Juden
preises
geliefer@@
Ernennung
blicke
schieben
itäten
IK@@
Gy@@
beam@@
Stabilitäts-
ay@@
Erinner@@
Vorstand
derungen
chtige
dex@@
Euror@@
Trennung
Meet@@
zeile
komplizier@@
Passagiere
portugiesischen
alue
Top-@@
Erwä@@
Räumen
hard
rums
Griff
ausgewogene
Ernährungs@@
anstreben
ny
Standpunkte
fone
Etagen
gegrün@@
regelmäßige
Ala@@
Augenmerk
entra@@
systematisch
Wikitravel-Benutzer
opoliti@@
Main
Executive
unternehmer@@
look
Leu@@
Impulse
treu@@
gründlich
SQL-@@
rechen
gia
Sitzungsperiode
Signale
LT
nette
Hilfe@@
Demokratien
konver@@
Albanien
Nachbarschaftspolitik
Alpen@@
Release
rön@@
Bemü@@
palästinen@@
Einflu@@
modus
beantragen
Mailand
medizin@@
empfeh@@
SE
gewandelt
erischen
bücher
vermieten
AC
gesetzliche
eds
Ball@@
LA
Verbindungs@@
ury
wurfs
reservieren
restauran@@
Fit@@
On
Linux-@@
Viel
Kandi@@
behei@@
Ausnahmere@@
geschützten
Eigent@@
Display
Verknüpf@@
guage
boo@@
einstellungen
Dü@@
halben
fahrzeugen
Wissens@@
Rie@@
Weihnachts@@
Heim@@
gehörigkeit
entral
gemütlich
schaffung
diente
Begeg@@
Kleidung
änderungs@@
Lon@@
enseit@@
optimiert
walt
irre@@
Etage
Wahrnehmung
Solu@@
Indikatoren
iler
bekam
este
Vermarktung
Serien@@
Darauf
digkeiten
energie@@
Unternehmer@@
til
volumen
ske
raum@@
Angeboten
Ratspräsidenten
sierungs@@
Herstellern
Aufpreis
modernsten
PK@@
erheb@@
arbeitenden
Tastat@@
Materi@@
Ganze
inner
antiken
engagieren
bemerkt
Herzlich
rund@@
Klär@@
baute
geholt
einbringen
ziehe
isierten
letztes
Ostsee
Wachstum@@
geo@@
welle
geltend
ре@@
Flüssi@@
gration
nahe@@
schien
Content
Lust
Hotelzimmer
atischen
scheidung
flotte
Tsche@@
77
Boutiqu@@
bearbeitung
Lar@@
laufend
Paradies
Hung@@
annen
präz@@
Hilfen
oth
EA
gnis@@
ologen
heira@@
Früchte
Super
ernannt
ello
Reserve
geänder@@
vorbereiten
II.
mere
Zentren
rations@@
intelligen@@
Maßstab
HD@@
müh@@
rus
69
Ausstellungs@@
fotograf@@
tec
zess
EX@@
Zutaten
ault
starb
Binnenmarkts
angehören
verwirklicht
ssions@@
Hir@@
Lag@@
SU@@
Adressen
führend
euer
verbreiten
aggressi@@
Mittelme@@
Forst@@
walk
authen@@
Hardwar@@
Verbin@@
flüsse
wahrnehmen
geräumige
mat
strahlung
Level
dak@@
scheinend
.net
stemp@@
produkt
es-@@
Grafi@@
Verhin@@
Rahmens
prop@@
wachstum
vis
frühere
ight@@
Provin@@
Depre@@
taten
allmählich
bür@@
As@@
club
dimension@@
gessen
haltenden
identifizieren
Bour@@
Master
global
Spanisch
geschätz@@
gross@@
beruf@@
Zeitungen
wende
dation
zunehmen@@
Schottland
Schaf@@
ji
kostenfreien
moralische
Später
Netzwerke
ript
alth
Mittel-
ruf@@
vorrangig
abli@@
eti@@
Songs
Vulkan@@
swerten
Finanz-
europä@@
schreiten
00-@@
Pest@@
Konflikten
ueller
üben
Anpassungen
herrschaft
AR
englische
Parlament@@
Temperatur@@
mous
arr@@
Anreiz
Nikon
probieren
prinzi@@
Gefän@@
space
Anzeigen
tchen
Konver@@
pläne
agements
61
62
Listen
beweist
Nachbarschaft
Karl@@
deckung
hervorzu@@
ansä@@
elegant
berühmt
Inzwischen
nächst
äußerster
Weiter
ET
wozu
350
Laut@@
proto@@
io
riffs@@
läß@@
grundlage
Künstlern
door
по@@
Alexander
Resultat
attraktiven
holung
Davon
rang
religiöse
Beispielsweise
ku
89
tatsächliche
zell@@
cra@@
erfassen
Sierra
verlu@@
kandidaten
Os@@
Run@@
Behinderungen
markiert
Höhen@@
verstärkten
Desktop
Prü@@
Angebot@@
unvermei@@
miniert
sted
partner@@
Fahrzeugen
haltsp@@
E-Mail-@@
gleichzei@@
beratung
Cot@@
betreut
Erfin@@
kennung
Breite
Sammel@@
lern@@
Dem@@
super@@
Inflations@@
Dekor@@
fehlende
besichtigen
than
vos
100@@
kopieren
late
LIN@@
erkennbar
Informationsgesellschaft
seitdem
Anschließend
Interview
Standorten
ländischen
restri@@
Vert@@
Chil@@
ite
Frie@@
niedrige
sheit
fair@@
bia
nahen
Rohstoff@@
mpfen
kommunistischen
Kanäle
UNO-@@
Airlines
koordinieren
veröffentlichte
Auftraggeber
vorhaben
food
einrichtung
schnellst@@
Real
benachbar@@
stiegen
Residence
meint
Mountain@@
koordiniert
nachzudenken
Lis@@
Sofern
Speziel@@
Konsumenten
erreichten
manipu@@
Portug@@
Umstrukturierung
beacht@@
two
Reden
oba@@
Institute
Religions@@
anspruchsvolle
reiches
Vet@@
anzugehen
gefertigt
zenten
otten
CON@@
geplan@@
Aufsicht
mily
Impul@@
iern
MS@@
Bonus
beherbergt
schlusses
Kaiser
bemerken
Nachricht@@
expli@@
English
miten
London@@
Sicherheitsrat
Adre@@
orien
Hunger
wertet
LAN
hl
reichs
Parlamenten
vernünftigen
Nachteil
Fest
dü@@
ned
Touristen@@
us-@@
heruntergeladen
Grafik@@
dürften
loh@@
gliches
han
Lauf
Allein
städtischen
umfang
votre
France
feier@@
tär@@
lit
ray
Richtigkeit
Hongkong
Düsseldorf
Var@@
-Sterne-@@
Tourismus@@
Alex@@
Edin@@
sitzung
Begeisterung
istischer
such@@
schätzt
Š@@
beglückwünsche
Präsent@@
Weltkrie@@
Dafürhalten
beitrag
riffs
u.@@
Erleich@@
Glo@@
schöpf@@
Interface
gratuliere
Sän@@
Konsoli@@
dringen
phone
BM@@
geschicht@@
Geschlechter
Feed@@
School
Eingabe
Dunk@@
Veröffent@@
2,5
Ursprungs@@
mpf
fizieren
ermächti@@
Zinssätze
erklärung
cious
Privi@@
Gutes
verschul@@
Erkrankungen
zulässi@@
ausgeliefert
bedürfen
Sicherheits-
schaftlich
Rücken
abzulehnen
anlässlich
ENT@@
rief
verlust
91
Teilnehmer@@
exzellente
Komplexität
beantragt
bezogenen
touristischen
Willi@@
beobachtet
kil@@
Hunderte
Teu@@
steine
Effe@@
lina
mmung
matischer
geräumi@@
Sevilla
personenbezo@@
Norwegen
bestätigung
Broschür@@
MA
Sant@@
Experten@@
Copyright
Daraus
Vergü@@
Ord@@
skand@@
76
Wollen
religi@@
oppel@@
Classi@@
büros
Annäherung
explo@@
stabil@@
begriffen
haltende
Metro@@
Motiv@@
Hoffnungen
Warte@@
mangelnde
Juli@@
Anleitung
latz@@
Vorwand
dei
tender
Allgemeine
wanne
Tabellen
gründet
ML
buffet
PPE-DE-Fraktion
Gab@@
steigende
Bie@@
Buchstaben
aufhören
Petitions@@
hinzuweisen
Buffet
spartnern
pflanzen
ama@@
befreien
Econ@@
zusammengestellt
Unterricht
ear@@
home
tanz
Minimum
beeinträchtigen
Helsin@@
Geräu@@
Wäl@@
Chaos
ungsinstru@@
really
virtuellen
roten
tliches
verträge
gster
94
Schiffen
Jahrhunderte
gemäß@@
Arti@@
dre
Nar@@
Werde
Haltestelle
Zugangs
schwach
ausgebil@@
Mitwirkung
bildungen
Säule
Windows-@@
Vertrieb@@
Zentralbanken
Diktatur
Franzo@@
wertvollen
uropä@@
Nutzern
Klang@@
mani@@
Einbindung
Mitgliedsstaaten
standard@@
Rec@@
Slides@@
internet
IA@@
lehen
ausgestellt
ungsmaßnahmen
vielfach
besagt
Literatur
Gross@@
Dutz@@
gerten
Nich@@
beeindruckende
horizont@@
Devisen@@
dal@@
morgens
Gültigkeit
semb@@
Jon@@
vents
unent@@
versprochen
formation
Machen
Redezeit
Unterhaltungs@@
t-
zz
schon@@
diten
wehr@@
gestri@@
Publik@@
nachten
a.@@
HTML
damer
billigen
Gefan@@
ebene
Tibet
Kompli@@
eigent@@
BER@@
Charles
Zucker
Delega@@
tschechischen
begrenzte
Spiels
meisterschaft
bedient
ört
fortzusetzen
laubnis
diversen
Gleichbehandlung
festhalten
Kloster
olo
Erneuerung
Obst
Ungleichheit
anspru@@
Datent@@
Nahr@@
dauerhaften
schlug
eingebet@@
gewöhnliche
pot
Lizenzen
Gepäck
spolitiken
Alger@@
Verwenden
Passag@@
vorsitz@@
festiv@@
sé@@
Cô@@
Wartungs@@
Panorama
Mittagessen
Richard
Technology
zza
first
Schriftliche
Zwischenzeit
Arena
Ear@@
sowje@@
date
aiss@@
Geschäftsführer
fasste
weiß@@
ito
Formate
Labor@@
dyl@@
psy@@
behindert
sorge@@
arme
Fäl@@
Wachstumspa@@
Ganzen
cri@@
Treiber
Territorium
Suites
atische
user
ausgerüstet
Tin@@
ermittelt
latein@@
kammer
wunderbaren
Vorsicht
fige
dorthin
Gesamtheit
Schätzungen
Geburt
Eigentums@@
Publikationen
Fristen
außergewöhnlichen
den-@@
lor@@
who
gegeben@@
Besteller
kreative
ð@@
Music
Folge@@
differenz@@
folgerung
geordneten
management@@
ras
Abend@@
institution@@
.-@@
Assoziierungs@@
Kirk
Statut
blockiert
westliche
gemachten
liter@@
berechtigung
Strecken
vereinbaren
Beleu@@
rug
stel
Cab@@
ruppe
Meister
durchschnittliche
intelligente
igur@@
denti@@
110
made
bewundern
stiges
demokraten
kommunizieren
ager
zusammenzu@@
profitiert
sache
handlung
omi@@
zurückkommen
Milch
Milli@@
Diejenigen
beachtet
mum
Jahreszeit
Orientierung
Konzern
Ära
CO2
willkür@@
lichung
gefahren
me-@@
Verschle@@
shop
bedeutend
180
Gefangenen
größ@@
lebten
erholen
unum@@
Schwach@@
volu@@
angeführt
Kernenergie
Dossi@@
schätz@@
mange@@
grafischen
stellbar
Gesetzen
fossi@@
offensicht@@
sco
architekton@@
zufriedenstell@@
stechnologien
ativ
Schritten
perfekten
Az@@
Werkzeug@@
Pfad
Infrastruktur@@
Finanzinstitu@@
tätigkeit
Prof.
Exeku@@
dichte
betrieb@@
erschü@@
österreichische
lev@@
kons@@
sili@@
Promo@@
Hein@@
Epo@@
gon@@
Quadrat@@
stuhl
stritten
ôtel
disch
undenen
mut@@
chtest
Hindernis
Tschech@@
brachten
Wanderungen
anony@@
ope
Plug@@
Rotar@@
gri@@
Handhab@@
Tak@@
these
Busine@@
ktem
Aufrechterhaltung
Artikeln
Schli@@
Geltungs@@
alin@@
Finanziellen
Erwerb
gründe
grundlegend
Forscher
ästhe@@
Verantwortungs@@
reise@@
vorzubereiten
Detail@@
Vorbehalte
misst
Innova@@
speisen
right
DEN
Mitentscheidungs@@
stran@@
mög@@
kontra@@
erzählt
ick@@
Rechtssicherheit
Kompromiss@@
ý
Rea@@
verzeichnis
Gegenden
verlängert
на@@
sammlung
schwarz
sers
verschärft
ausgeübt
jk
Leucht@@
pg
wall
à@@
Verz@@
ь
Freizeit
Gehir@@
abgeschafft
Moldau
einsetzt
auswahl
kapazitäten
Downloads
Erweiterungen
untergebracht
sspe@@
fassten
begrenzen
Formel
erwarte
rahmens
vereinbarung
beginn
Räumlichkeiten
pflegen
erstklassige
Sele@@
selek@@
indirekt
Stab@@
seu@@
Lud@@
ihr@@
unglaub@@
speci@@
GB@@
komponenten
Welthandelsorganisation
riften
ín
cion@@
quer@@
Vietnam
ć
Tick@@
zügen
auswärtige
tory
Register
UN
kümmert
PSE-Fraktion
losen@@
legend@@
künften
Security
78
Co.
Demo@@
Servicel@@
wser
bestraft
dauer@@
Generalsekretär
Musiker
et-@@
gangene
Gewis@@
sprün@@
limi@@
Zentrums
basierend
ausgeprä@@
Firefox
vorausgesetzt
ktivitäten
Höhepunkt
bend
ę@@
Beförderung
erzielte
ggf.
standar@@
wandeln
ardo
stattfin@@
Lux@@
Basel
Maus
Störungen
Kanz@@
damaligen
dite
AF@@
sozusagen
dächt@@
symp@@
bereitgestellten
Produktion@@
ausgeben
gyp@@
übertra@@
echter
Amerik@@
Entschädigung
Entdeckung
Saint
Einfach
ausgewogen
audiovis@@
Nachfolger
Gegebenheiten
schlimmsten
Chinesen
stufe
warm
einrichten
7,@@
trinken
Gesundheitswesen
grafische
Rek@@
HU
sichten
Bedrohungen
kos
flie@@
funktions@@
unglaublich
öhnung
tsche@@
Blä@@
Schluß
genheiten
kommens
bathroom
Perfe@@
CO2-Emissionen
abschließen
Entwicklungspolitik
versprechen
Plattformen
hoff@@
bekämpft
Austri@@
priva@@
Stellungnahmen
Beitrittsverhandlungen
intensiven
file
faktoren
römischen
appel@@
lichere
Gleichwohl
ausreichen
Attra@@
Norm
Grupp@@
Konfigurations@@
án@@
lebte
business
Naturkatastrophen
betragen
Geldpolitik
Zie@@
Vorgang
ads
Schwerpunkte
73
Hyper@@
aufrufen
veranstaltet
ausgenommen
Verwen@@
Koloni@@
vorschlägt
massiven
UK@@
Tagungen
Ran@@
Flächen
immerhin
allery
bör@@
illegal
Einfluß
Kerami@@
Hz
Behandlungen
Voraus@@
vali@@
Ener@@
Charakter@@
Wikic@@
prinzip@@
klen
verwand@@
tnis
Lese@@
Grundfreiheiten
Gedanke
westen
Exemp@@
Geschäftsreisende
amtierende
Seminare
Space
Schauen
Zeitalter
ar-@@
Kompet@@
transatlantischen
Bruder
Spri@@
alternativen
umfassen@@
Mark
Palma
vez
ating
stetig
plä@@
Montene@@
hütung
Durchschnit@@
Isol@@
Ergän@@
bildungs@@
Gewer@@
ends
Beschleun@@
Tepp@@
eingetra@@
ör
anzusehen
GF@@
Minderheiten@@
Anleger
Viertens
tierenden
signifikan@@
windigkeits@@
prag@@
diesbezüglichen
Peking
ergrei@@
massive
eil@@
melde@@
abzuschließen
alitäts@@
schlägen
anre@@
Trocken@@
unen
sspiel@@
aufgeführten
station@@
Lett@@
indu@@
abhängen
Bungalo@@
paten@@
indischen
bels
bewahr@@
freiwillig
Zusammenfassung
empfehl@@
gebauten
Krimin@@
quantita@@
rumän@@
seri@@
Zivilisation
Network
Vertei@@
Cafés
wass@@
fehl
Nichtregierungsorganisationen
tigungen
Gefähr@@
PC-@@
bewäl@@
ás
ciones
Gleichheit
gesenkt
Schulungen
Metro
Spy@@
No
quoten
ities
Katastroph@@
lassenen
technologien
Enttäu@@
off
Genauigkeit
Fak@@
Unser@@
ń@@
folgedessen
hôtel
Leipzig
privi@@
pension
ë@@
Demokratisierung
ersuchen
drän@@
ktionismus
transe@@
try
Nordkorea
Assozi@@
lob@@
ligten
Din@@
ο@@
außer@@
militä@@
zweif@@
Funk@@
sm@@
volution
Griechen@@
pien
undert
gerich@@
amtier@@
ohn
Zah@@
ielten
Quad@@
Gesprä@@
sammelt
russi@@
halten@@
schwa@@
stimmungs@@
ktrum
Weih@@
xik@@
II@@
ufen
oph@@
italien@@
ul
mel
schaftlichen
schaf@@
beschle@@
bew@@
zie@@
ministra@@
Mensch@@
trächti@@
meister@@
ska@@
fts@@
itia@@
otenzi@@
betreu@@
dels
gaben@@
Minder@@
Auseinander@@
Isra@@
Bedürf@@
agno@@
ismus@@
inn
gno@@
Vers@@
bedauer@@
endly
Austra@@
sachen
vorgeseh@@
zugang
verknü@@
durchschnit@@
otenzial
ander
Mehrwert@@
reck@@
läufig
äle
mber
sätzlich
chbar
Ori@@
för@@
moder@@
Moder@@
sal
Dör@@
soll@@
genommenen
ε@@
Ergeb@@
richtlin@@
zulegen
Journa@@
Gele@@
Frankfur@@
Ausschu@@
erstre@@
steuropa
lations@@
region@@
å
gt@@
akzep@@
Religi@@
Grie@@
einz@@
forderungen
rauch
sweise
sonsten
forder@@
ile
zimm@@
Genie@@
zonen
nun@@
portugie@@
Sour@@
zusetzen
enttäu@@
olz
betreff@@
uri@@
leist@@
Tsch@@
prüft
teri@@
bemü@@
kategor@@
illeg@@
Dimen@@
ftung
tie
Auftrag@@
rank@@
tent
spru@@
Bulgar@@
reicher
antwortet
Ih@@
Lat@@
enfalls
Ratsp@@
Lissab@@
kann@@
Pfa@@
nami@@
stande
Ministerp@@
Protok@@
Amster@@
Konsequ@@
rün@@
zeh@@
Legi@@
Live@@
Corpor@@
erfül@@
eingeschrän@@
lägen
schrän@@
Demon@@
Dr@@
liehen
Gä@@
istan
eini@@
Stoff@@
bezieh@@
fik@@
Beschrän@@
It@@
Gewerk@@
Alb@@
folgerungen
abgel@@
unkten
Tren@@
Somm@@
tzen@@
Immo@@
vernünf@@
vermei@@
Befu@@
Kun@@
Softwar@@
Modern@@
Camping@@
Kohä@@
erneuer@@
rank
gen-@@
sn@@
verfü@@
Kombin@@
kompati@@
Enter@@
konzentri@@
zep@@
ide
Treib@@
gerä@@
unzureich@@
β@@
Kran@@
Anpass@@
bet
bliothe@@
sorgung
х
wendi@@
vereinfa@@
Alter@@
ony@@
deta@@
Kilo@@
fäh@@
ßer@@
Zun@@
Aller@@
ahl@@
tifizieren
auftra@@
geprä@@
Genehmi@@
kauft
т
wier@@
weile
kompon@@
Ärz@@
harma@@
graben
DE-Fraktion
Mär@@
möglich@@
unkt
komfort@@
timi@@
ehrgei@@
sph@@
ktu@@
alterna@@
chischen
ghan@@
Weit@@
dyna@@
gewöh@@
wesent@@
Region@@
ι@@
Tourist@@
Soli@@
lichten
ellos
Cop@@
Vorder@@
ultur
Zivi@@
exter@@
schmer@@
Heraus@@
Chine@@
Č@@
ließ@@
ausel
Dien@@
sprä@@
bisher@@
mmert
ökono@@
leger
Komment@@
tei
human@@
ärten
Kaffe@@
stsein
wesen@@
Kro@@
Verbess@@
chnung
angel
ehema@@
Institu@@
ermöglich@@
ordnungen
igar@@
Art@@
Hard@@
institu@@
klusi@@
lus
äd@@
Secur@@
ň@@
SQL
anstal@@
differ@@
zeich@@
materi@@
Lissabon-@@
geschnit@@
Unterschie@@
Mitentschei@@
wischen
riesi@@
zufügen
grundle@@
damerik@@
Wirt@@
5-0@@
Wesent@@
ausch
gewähr@@
einander@@
Regierung@@
ickt
grupp@@
verwöh@@
Verfü@@
ferenz
Yor@@
dafri@@
chem
energie
begeg@@
foli@@
terna@@
auslän@@
platte
Vermitt@@
chst@@
Spä@@
Abhängi@@
gnü@@
ś@@
achtung
gerü@@
Oba@@
Ausspra@@
Defini@@
EZ@@
Pflan@@
urteilung
Beteili@@
у
Works@@
schür@@
stigen
gespeich@@
mus@@
aufmerk@@
malerweise
krankungen
æ@@
Technolog@@
defizi@@
testelle
heber@@
dler
Klo@@
korea
erhäl@@
kehrt
spoliti@@
ш@@
Franzö@@
Präsident@@
cell@@
erweiter@@
tzutage
Formu@@
Geschma@@
kehr
Zahl@@
Upda@@
bst
hilos@@
ehrten
bedeu@@

diesbezü@@
Investi@@
herstellung
türk@@
Zwan@@
lags
Krei@@
rüh@@
Augu@@
haltungs@@
Metho@@
erkann@@
leisch@@
†
Mus@@
Flä@@
äufer
gelin@@
face
igh
dän@@
verstär@@
Bun@@
größer@@
moment@@
Optimi@@
angebot@@
verank@@
Tha@@
soft
ä
won@@
fä@@
Fr@@
Bür@@
beschreibung
gekehrt
grie@@
Luxe@@
sorgungs@@
internation@@
spekt@@
ssor
Market@@
Angeb@@
effizi@@
jetz@@
ruppen
Überzeu@@
inno@@
Konfigur@@
gegensei@@
Nachhal@@
stärk@@
mand
lines
ausgezeich@@
offiziel@@
unab@@
staun@@
Af@@
mutzung
bezo@@
play
wirtschaf@@
Stellen@@
Übri@@
wohner
Binnenmarkt@@
ferenz@@
Zin@@
ftware
Restauran@@
kontak@@
pot@@
Industr@@
vent
Einla@@
rien
endsten
Regier@@
News@@
rinzi@@
Cook@@
genann@@
Außer@@
Zuständi@@
σ@@
österrei@@
Umstruktur@@
zierung
Skyp@@
übri@@
ater@@
ruhi@@
ograf@@
Amer@@
Verlu@@
erwor@@
Liter@@
KM@@
Krank@@
Expre@@
erium
r.
luft
chine@@
ermaßen
gehoben
sonder@@
Copy@@
aff
besonder@@
erkenn@@
Ech@@
Ausgang@@
unser@@
Betreu@@
С@@
wesenheit
auffor@@
atten@@
europ@@
behör@@
ρ@@
ahr
Erwar@@
ffung
wahrschein@@
schinen@@
grenzüberschrei@@
wechs@@
Anhän@@
anträge
sme@@
Rumän@@
gbarkeit
ssiert
erken@@
gelegten
Ungar@@
mobil@@
abri@@
gehensweise
pos@@
Vorsitz@@
öffnung
Prinzi@@
Finn@@
z.@@
Gepäck@@
telli@@
Gesell@@
Vide@@
kommerziel@@
spekt
Anstren@@
Moun@@
wicklung
entrums
Notwendi@@
arch
gebu@@
indung
Tenden@@
̈
ruh@@
Sli@@
betro@@
füllung
elev@@
ichtlin@@
enswür@@
Urspr@@
reibt
erwäh@@
eum
Era@@
genu@@
winden
trän@@
angewand@@
Diskrimin@@
legungen
Chin@@
Schri@@
Dynami@@
ohlen
mate
Distribu@@
Engage@@
angekün@@
Tai@@
Phäno@@
gnügen
Exist@@
fied
forman@@
sequ@@
behaup@@
mittler@@
ş@@
Koso@@
Volk@@
Schlü@@
Mitglie@@
Wahrschein@@
Kopenha@@
Stadtz@@
Zustell@@
ы
Tho@@
offi@@
ausreich@@
reisende
ĺ@@
läge
verur@@
Vorbereit@@
dama@@
ssy@@
Alban@@
Stati@@
Anre@@
Nachfol@@
ahr@@
spezif@@
graf@@
Verteidig@@
räsident
sichtigen
industr@@
lück
beauftragten
solu@@
Trin@@
spartei
geschmack@@
κ@@
ommen
ausgestat@@
sorganis@@
μ@@
dings
sselbe
ott@@
o.
urg

č
auso
shalb
sproch@@
unkte
erforder@@
Büh@@
Orien@@
Г@@
Zimm@@
ŕ@@
Jour@@
π@@
brauch
schütz@@
Ganz@@
Verantwor@@
sichtig
Agr@@
tzei@@
ò
Home@@
ü
Bevölk@@
unge
rauen@@
ù
hilosoph@@
Vertrie@@
Föder@@
szin@@
xi
äußert
Komplet@@
Schatten@@
safe
antie
gekenn@@
α
Künst@@
Beobach@@
Straß@@
Äu@@
ż@@
ν@@
đ@@
Konkurr@@
Mechan@@
Vul@@
effizienz
Barro@@
kategorien
Brasi@@
kument@@
Berat@@
sslich
Geg@@
Kontr@@
Bouti@@
beob@@
Buchstab@@
symb@@
Transpar@@
Milit@@
Automo@@
Bürokra@@
ktiken
konzip@@
ühren
Zwe@@
bewu@@
werben
х@@
Konzentra@@
Elekt@@
Script
c.
wirtschaften

beschleun@@
Großbritann@@
Kommissionsp@@
Know-@@
Progra@@
hilfrei@@
äuß@@
gton
Ägyp@@
humanit@@
stimmung
Deu@@
Spei@@
schlimm@@
atlan@@
gerüstet
ý@@
Erneu@@
Zinss@@
bestra@@
metho@@
Afghan@@
Book@@
konzent@@
beschrei@@
Bestä@@
tür@@
Beispiel@@
Vereinig@@
drucks@@
Brei@@
ò@@
Entschä@@
Emis@@
beziehung
geräumt
ssieren
ю@@
Vorre@@
lässlich
unsten
Commer@@
Studen@@
É@@
timent
ï@@
Performan@@
Resolu@@
Köl@@
Haushaltsp@@
rechtzei@@
Proto@@
Jugen@@
wan
ück
ktr@@
Effizi@@
Stör@@
strafe
villa
Swis@@
opo@@
Reak@@
Rele@@
cated
klärt
Anhör@@
Lieblin@@
Abgeord@@
wohnern
bemer@@
interess@@
Mut@@
nega@@
atori@@
absichti@@
mack@@
λ@@
gratu@@
Beisp@@
Komplett@@
Generalsekre@@
Kroati@@
mbin@@
waff@@
denfalls
Ins@@
Profe@@
koll
Hist@@
щ@@
erleich@@
Eigentü@@
ā@@
zufrieden@@
utz
stab
verrin@@
Govern@@
then@@
veröffent@@
Freu@@
Chemi@@
urlau@@
ğ@@
seen
unverge@@
Allge@@
¿
vorhan@@
wes@@
eriode
krip@@
säch@@
kandi@@
Betrie@@
Russ@@
Lob@@
näher@@
geräu@@
Frank@@
Argu@@
ausse@@
beeinflu@@
gebäu@@
chtum
â
berichterstat@@
völk@@
Union@@
Tabel@@
bevölk@@
Git@@
Prior@@
Regu@@
£
ünf@@
entre
Gipfel@@
allel
eta@@
riere
Kommission@@
Frem@@
merk
erhin
dafrika
gehens@@
mosphäre
zukünf@@
gipf@@
wegs
lemen@@
künf@@
drü@@
trol@@
senkt
beten
volution@@
informi@@
fie@@
ا@@
Bewus@@
uverän@@
ordin@@
unterbro@@
ą@@
demon@@
plötz@@
hot@@
Ã@@
ф@@
Newslet@@
Konsu@@
trin@@
reag@@
Kris@@
Roy@@
hoh@@
otte
diver@@
liti@@
unterbrei@@
Premier@@
Stru@@
programm@@
tendlich
Krea@@
organisi@@
Situ@@
lichte
~
Goog@@
Kör@@
astr@@
Territori@@
ienen@@
Gül@@
ühm@@
Gent@@
ö
lub
gosla@@
Pia@@
IW@@
haupt
Janu@@
Zerst@@
ängt
Konta@@
wacht
Brut@@
й@@
Eben@@
trol
velop@@
Alu@@
Indikat@@
Komplex@@
dauerhaf@@
zwungen
Websi@@
serve
ehrte
enzeit
mindest
Steu@@
mäh@@
nehmer@@
spannung
ffet
erkennung
gh
chmal
Arme@@
nommen
onnen
Bosn@@
letzt
kommens@@
Jahrzeh@@
gramm@@
Nichtraucher@@
quis
vate
hilosophie
iegen
tegri@@
schritt@@
Korrup@@
³
ing.com
ahlen
schrank
zei
stimmungen
transatlan@@
і
geför@@
Eg@@
ς
Ukra@@
Erhöh@@
achtei@@
fortable
kommunika@@
pps
ı
chamb@@
ssour@@
Arz@@
beher@@
ährt
Mr@@
Commun@@
Phi@@
Sowjet@@
½
bahnhof
einstimmi@@
verletzungen
veau
gehöri@@
Begrün@@
Á@@
Konz@@
cellent
Molda@@
ilt
Lateinamerik@@
Hyp@@
ć@@
sön@@
Zivili@@
Sep@@
Verstän@@
С
Dah@@
Präsi@@
rupp@@
Hinder@@
charak@@
olls
Stabilitäts@@
ő@@
gentin@@
û@@
zugr@@
Servi@@
zusagen
alitä@@
wärtige
Inte@@
itte
lätze
gewach@@
ل@@
nifi@@
erinn@@
Verpflich@@
eingerich@@
Å@@
häfen
ą
Mein@@
alien@@
entscheiden@@
dür@@
Beschäf@@
problem@@
Zuverlässi@@
Deut@@
с
Gere@@
Wet@@
schlä@@
terran@@
stiken
lossenheit
э@@
beantra@@
ologien
otenti@@
Ratsvorsitz@@
now@@
ί@@
Betro@@
Bereit@@
parla@@
ehmen
eute
Erei@@
EAD@@
stopp@@
ă@@
allmäh@@
arbeitung
atures
Gastfreund@@
gewäh@@
Kult@@
faci@@
Äußer@@
E-Mail@@
beitra@@
Argentin@@
dürf@@
Krä@@
dank@@
ě
kaufs@@
ähigkeiten
Downlo@@
auen
ieder@@
Squ@@
kommuni@@
к
öch@@
lüsse
õ@@
personen@@
gefügt
Wikitra@@
langfrist@@
diglich
respek@@
Sank@@
Slowak@@
kommis@@
Cock@@
Wis@@
Micha@@
Jul@@
För@@
sult@@
rag
Ž@@
jet@@
Konjun@@
wh@@
Linu@@
П@@
→
Apparte@@
befürwor@@
Schick@@
eingerei@@
Sicherh@@
haltet
atür@@
Kapaz@@
Devis@@
ernen
Immobili@@
hops
messen@@
ю
Höhe@@
ww@@
WT@@
zutage
џ@@
stanzen
Empfeh@@
strie@@
Verfol@@
Erinn@@
geschnei@@
œ@@
dingung
tformen
parlamentar@@
bile
υ@@
enster
Strate@@
Soll@@
kein@@
enga@@
itra@@
Tragö@@
ę
ï
Deleg@@
gebro@@
η@@
Puer@@
ű@@
н
nachlässi@@
hne
lities
gesundheit
ganis@@
dimen@@
sidi@@
übung
ń
Donner@@
Weihnacht@@
ätze
zügigkeit
orizon@@
−
Slowen@@
Ankün@@
vot@@
tegor@@
genö@@
Madri@@
ι
merik@@
fo
betre@@
В@@
Ernähr@@
letsch@@
Rechtsstaat@@
SQ@@
Mallor@@
δ@@
ī@@
Mitarbei@@
shin@@
lehnung
Genau@@
htt@@
Ruß@@
benach@@
Rum@@
Okto@@
Risi@@
kto@@
ì
з
sphäre
Wech@@
ness@@
Kommunika@@
bean@@
sorganisation
verhin@@
Zyp@@
erläu@@
wisch@@
beglei@@
tna@@
µ@@
Vietna@@
Reguli@@
Window@@
Justi@@
zusammenarbeit
enn
tivität
ď@@
schefs
nehmung
besei@@
Auffor@@
Drit@@
ssourcen
Rubri@@
astroph@@
Inno@@
Р@@
Vermarkt@@
jenigen
Proble@@
geneh@@
Late@@
Swimm@@
Jugoslawi@@
häno@@
Vereinfa@@
ů@@
Н@@
Sow@@
horizon@@
behör
ahme
Stuttgar@@
litik
hauptsäch@@
hängi@@
spannen
Rah@@
ê
allor@@
wart
Debi@@
º
î
antra@@
zwangs@@
Apri@@

Inkraft@@
denschaft
erör@@
ilet@@
ausgewäh@@
ن@@
Auswei@@
Legisla@@
drohung
derten@@
nüpf@@
gerecht@@
rak@@
enha@@
Implemen@@
vel-@@
Gipf@@
Unterdrück@@
genomm@@
Ÿ@@
katastrophen
ο
`

Reihen@@
liere
pitel
Indon@@
gete@@
Enterp@@
Kathe@@
stehung
›
oler@@
teili@@
reten
Enga@@
ú
mittl@@
laub@@
etschen@@
ì@@
Agent@@
Verfahr@@
Verletz@@
berücksichti@@
lieb
γ@@
Ansprech@@
Ihr@@
έ@@
Swimming@@
Defin@@
helpf@@
Treibhaus@@
Vergan@@
Hongkon@@
w.
ν
zeln
klusive
raucher@@
İ@@
Automobi@@
Res@@
ssyste@@
Davi@@
24-Stunden-@@
goslawi@@
š
Dän@@
Entsch@@
gefähr
ž
terstat@@
ursprün@@
К@@
ave@@
Kür@@
bequ@@
Verbrei@@
chmals
ό@@
Windo@@
bathro@@
sbür@@
eils
ält
р
Hostel@@
ã@@
zahler
Phone
beträ@@
д
audi@@
Pek@@
Ç@@
Betru@@
bewertungen
Thail@@
ň
mburg
Vermei@@
tien@@
ritann@@
vation
ean
ista
haup@@
124@@
ubli@@
plor@@
uman@@
PPE-@@
besi@@
˙
Düssel@@
ε
chtlin@@
Sehenswür@@
×
Gewin@@
Americ@@
م@@
Verhalten@@
Millen@@
ftwar@@
mbH
pest
CHT
itätsp@@
Febru@@
ĺ
ignor@@
Temper@@
Kategor@@
nehmlichkeiten
О@@
kömm@@
wirt@@
Schott@@
Palästin@@
Latein@@
okol@@
Bezieh@@
zwöl@@
Explor@@
Plen@@
Leip@@
θ@@
beun@@
ά@@
Stabilitä@@
Liby@@
Vermö@@
^
л
ş
lötz@@
Simbab@@
¡
Result@@
Ü
Verän@@
Umweltsch@@
Konfli@@
Kommis@@
Whirl@@
ū@@
Legitimi@@
Räum@@
±
ر@@
Erklär@@
Mäd@@
Â
chungs@@
finanziel@@
minde@@
ftmals
Aufmerk@@
tene@@
anzun@@
Zwisch@@
Preis-@@
zession
ë
Sorg@@
Marok@@
Garanti@@
Gepä@@
wünschen@@
ā
М@@
ē@@
ω@@
unzur@@
orig@@
fangrei@@
Lös@@
w.@@
kämp@@
testens
rasse
gegenwär@@
º@@
ismen
Bedeu@@
worten
Ö
Т@@
beglück@@
telle@@
Effek@@
Washin@@
ō@@

χ@@
räsident@@
ligi@@
Indu@@
ŕ
Ó@@
Nove@@
ł
hoben
endgül@@
Septe@@
konf@@
ő
f.
anders@@
Verlän@@
gleichheit
و@@
Execu@@
Däne@@
‑
Ł@@
ehnt
β
tatsäch@@
erziel@@
tsäch@@
Ø@@
Ś@@
А@@
Untersu@@
Haushal@@
Aspe@@
gewid@@
komfor@@
Verstär@@
konfron@@
Í@@
Ernen@@
ō
ungalo@@
Barcel@@
Foun@@
Eff@@
Б@@
ή@@
ї
ahe
ي@@
Geschä@@
Ђ
krä@@
sekre@@
britann@@
gewün@@
beeinträchti@@
÷
¬
chtens
teiligen
gehö@@
wortern
Integr@@
arus
tabel
Souverän@@
Liban@@
В
rase
quot@@
räsi@@
ъ@@
stauran@@
Änder@@
mbab@@
utzt
Д@@
Terr@@
fession@@
E-Ma@@
wesend
η
windig@@

Subsidiar@@
Verzö@@
atisch
Hekt@@
Wik@@
ά
Ú@@
Mexik@@
bwür@@
Exe@@
Sitzungsp@@
Annäher@@
kono@@
ľ@@
Präsen@@
Beob@@
zedon@@
Gegeben@@
stausch
Nukle@@
sächlich
obli@@
Deze@@
υ
ع@@
Rassi@@
schri@@
ب@@
Zufrie@@
Deta@@
ausspre@@
ت@@
iehlt
Dig@@
unger
Berücksichti@@
ù@@
Mazedon@@
¹
ø
Л@@
Verrin@@
unterschei@@
derzei@@
gehol@@
abschie@@
Doku@@
verwirk@@
rifft
erschi@@
Dele@@
gesamt
ė
kontex@@
nachtung
signifi@@
ό
Ñ@@
assung
regierungs@@
dingt
kton@@
ç
أ@@
busine@@
frecht@@
Ado@@
Ø
‹
Nichtregierungs@@
sigkeit
publik
anbe@@
ة
Lief@@
Wün@@
Behör@@
tnisse

ergän@@
И@@
Häl@@
Gemä@@
φ@@
innt
ė@@
ţ@@
د@@
Sui@@
ή
ż
akul@@
getö@@
freiheiten
Firefo@@
ů
sammen@@
є@@
unden-@@
À@@
Kohäsion@@
hät@@
drücklich
Geschäf@@
bezü@@
Ђ@@
Â@@
nahmer@@
aufrechter@@
ن
roph@@
undern
sych@@
﻿
jewei@@
ktop
њ@@
ύ@@
ك@@
З@@
Minderheit@@
uier@@
mittelt
Gesund@@
kei

û
drale
Klimawan@@
Ż@@
Besorg@@
Welthandel@@
paz@@
Ћ@@
ű
Ѓ@@
phrase
Sier@@
U-B@@
esien
lief@@
Е@@
Bedro@@
Buda@@
ﬁ@@
quanti@@
‟
Statt@@
fühl
funda@@
-Stunden-@@
Balk@@
sow@@
Vereinbar@@
י@@
г
У@@
ÿ
beherber@@
Ä
Ý@@
Glaubwür@@
õ
ف@@
Begeist@@
fahrens
●
schleun@@
ô
ã
ielt
¨
ك
lägt
Ratsvor@@
Liz@@
ي
ähigkeit
س@@
Ş@@
ñ
←
ă
É
hör
Ê@@
Î@@
ť
diesel@@
ovis@@

Perspek@@
ώ@@
ر
ÿ@@
ssicher@@
Ÿ
binsel
Ф@@
Ţ@@
џ
þ@@
Α@@
wech@@
dustr@@
א@@
Ε@@
ź@@
Ferienwoh@@
eist@@
Mitta@@
Nachbarschaft@@
À
Einw@@
Gegent@@
Onli@@
Orig@@
Э@@
Я@@
sichts
Ő@@
ї@@
igstens
räsidentschaft
ξ@@
ś
¥
ritori@@
wechslungs@@
¸
ِ@@
ت
ņ@@
ź
ausschu@@
lymp@@
※
Chancen@@
Strän@@
sterrei@@
mberau@@
Ó
folge@@
lexi@@
agement
Kohär@@
ľ
س
wirklichung
schäf@@
Ќ@@
ύ
ţ
ª
Besei@@
Р
kia
È@@
Vertra@@
setz
chnet
ť@@
خ@@
ו@@
⇒

Whir@@
Entschließ@@
Kolleg@@
ﬂ@@
büro@@
ū
ش@@
ج@@
sammen
oblig@@
ϋ@@
إ@@
І@@
Á
″
astrop@@
ا
oristen
Armu@@
Ч@@
Ð@@
ح@@
heir
Å
kontextu@@
Π@@
vorgeschla@@
А
Ausbeu@@
¾
Х@@
unika@@
kapaz@@
Đ@@
ж
tegie
Τ@@
benachrich@@
Säm@@
endum
є
ё@@
Hong@@

ר@@
vidu@@
ه@@
ص@@
ř
ikation
‎
ע@@
б
ί
Been@@
¦
№
Ý
isra@@
ī
►
م
Μ@@
‡
µ
ļ@@
ى
ه
ب
Ш@@
ˈ@@
ц
bzw@@
ض@@
æ
Ω
ј@@
п
andelt
↑
Ř@@
rägt
ζ@@
า@@
orthin
ב@@
woch
Η
‰
einzi@@
د
Þ@@
Ц@@
nahmere@@
ƒ@@
leisch
О
Љ@@
Δ@@
ی@@
portug@@
غ@@
ommi@@
œ

ד@@
Њ@@
ų
þ
ל@@
נ@@
Konsult@@
Γ@@
Fragest@@
Initia@@
【
schinen
ق@@
λ
√

Angele@@
fizi@@
ķ@@
Jahrh@@
Ď@@
و
ш
ل
Κ@@
kontr@@
Frühst@@
】
wärtig
sare
falt
Ï@@
‛
nehin
Opf@@
日@@
zicht@@
ג@@
mokra@@
Ō@@
ร@@
tenteils
schine
Џ@@
ー@@
Ν@@
schließend
ð
ŏ@@
Í
Aufrechter@@
У
市
ა@@
Ô@@
ה@@
ähr
zwan@@
räsiden@@
Ě@@
¢
Ι@@
К
Einschrän@@
َ@@
ğ
中@@
อ@@
』
И
È
˝
♥
′
¯
Ursp@@
מ@@
ч
ē
Bewäl@@
‐
פ@@
ə@@
Œ@@
ѓ@@
เ@@
ן
ط
đ
文
Liss@@
本@@
。
ernt
ː@@
和@@
צ@@
ќ
ə
ת
ק@@
י
Ð
Ο@@
ف
ث@@
ט@@
Ľ@@
╩
ģ@@
π
╚
М
⁄
่
ästin@@
ר
ғ@@
ώ
ე@@
milie
Д
น@@
ψ@@
Verabschie@@
І
φ
angebo@@
σ
̍
ả@@
̤
Ì@@
zentra@@
ز@@
Õ@@
ң

Æ@@
آ@@
Ń@@
Ziv@@
ส@@
：
ذ@@
،
ט
wischen@@
简
Î
ď
Ş
Asso@@
Š
ω
telligen@@
Σ@@
Parla@@

&@@
რ@@
☆
Ô
Ο
≫
■
ط@@
zuneh@@
、
ม@@
≪
˛

ѕ@@
Ρ@@
्
ệ@@
betracht
้
語
ellschaft
食@@
Β@@
Ę@@
Ć@@
ĕ@@
Û@@
Õ
上@@
≥
ء
▪
Ń
⇢
的@@
sine@@
ם
ი
Präsiden@@
ก@@
Ĺ@@
出@@
ा@@
გ@@
Ю@@
ع
‏

ɪ@@
დ@@
rechter@@
ע
Θ@@
љ@@
Љ
○
ス@@
İ
ː
พ@@
ש@@
₂
Ă
ะ@@
र@@
『
ächst
で@@
ท@@
З
μ
博@@
ǎ@@
ห@@
ی
dingungen
Angebo@@
Φ@@
网@@
Hostelsc@@
Я
一@@
ค@@
ל
multin@@
ң@@
ั@@
Ò@@
Η@@
Ú
ً
ْ@@
ühr
す
ё

˚
ง@@
ĝ@@
ン@@
天@@
漢@@
顶@@
ّ@@
́
∞
寺
rungen@@
名
Λ@@
ֳ
gesund@@

ო@@
る
ย@@
江
ұ@@
文@@
克@@
Subsidi@@
П
Є@@
ლ@@
Ž
大@@
۰@@
て@@
下@@
ә@@
の@@
Ă@@
（
五@@
Ћ
Richtlin@@
Ű@@
Т
ー
unktion@@
吗
Dubli@@
ф
ạ@@
ה
ი@@
ֿ@@
̇
roß@@
Ж@@
，
һ@@
っ@@
windigkeit
站
―
Ī@@
َ
ס@@
ล@@
uttgar@@
্
म@@
し@@
台@@
ṭ@@
≤
Katastrop@@
۱@@
－
tiefst
）
neue@@
agement@@
Ā@@
Ά@@
ŭ@@
ง
Ñ
Wachst@@
◊
otwendi@@
人@@
ี
ơ@@
Ů@@
≈
生@@

Ι
ộ@@
ү@@
Χ@@
Н
Υ@@
ŭ
Č
ế@@
Ï
฿
ს
ไ@@
Stellung@@
山@@
鋘@@
国@@
字
島@@
ک@@
♪
！
ehmi@@
ת@@
ħ@@
在@@
司
ラ@@
Ω

乐@@
Е
を@@
ـ@@
γ
匿@@
原@@
東@@
τ
赌@@
场@@
ま@@
语
的
‒
lkommen
鋓@@
用@@
ư@@
─
娱@@
Û
ต@@
自@@
Ц
正@@
ʒ
ª@@
♀
Њ
น
い@@
◎
♦
Х
ớ@@
Ф
қ@@
แ@@
ช@@
Ň@@
寿@@
gemeinsa@@
イ@@
小@@
wnlo@@
Ť@@
★
治@@

ี@@
き@@
Ò
ु@@
Ќ
ʿ@@
Ѕ@@
常@@
Wikitravel-@@
የ@@
ρ
ד
免@@
Ĉ@@
Ь@@
ด@@
ј
相@@
ſ
ረ@@
ễ@@
ө@@
島
ุ@@
Ğ@@
ຸ@@
ồ@@
新@@
ว@@
是@@
ำ@@
リ@@
は
ʒ@@
ґ@@
◆
舅@@
Ē@@
ዓ@@
♣
Vorausse@@
会@@
ļ
ў@@
Ħ@@
安@@
定@@
ด
ვ@@
口
Niederlan@@
ɛ@@
ย
ҡ@@
区
青@@
手@@
字@@
体@@
Þ
ɐ
西@@
広@@
解@@
は@@
Й@@
」
შ@@
า
年@@
海@@
ϊ@@
ん
ָ@@
்
平@@
ִ@@
サ@@
不@@
כ@@
女@@
敏
见@@
过@@
ʃ@@
禅
₪
Ж
ổ@@
か@@
ћ
南
顶
思
ǐ
ข@@
最@@
ở
‌
Ì
す@@
バ@@
舖@@
と@@
来@@
李
雄@@
ˆ@@
け@@
北@@
र
ُ@@
舫@@
鋜@@
か
ậ@@
verlässi@@

フ@@
Ć
ћ@@
▼
​
李@@
マ@@
名@@
い
tzdem
有@@
清@@
Anmerk@@
በ@@
ศ@@
Ω@@
ו
神@@
ח@@
に@@
三@@
式@@
ა
你@@
め@@
მ@@
Bemerk@@
剥@@
ố@@
テ@@
・
た@@
修
щ
۲@@
ἰ@@
ʊ@@
入@@
ይ@@
न@@
ト@@
ĩ@@
个@@
山
当@@
ז
ワ@@
̆
啦
ُ
ettbewer@@
レ@@
舁@@
ใ@@
ˌ@@
仁@@
э
จ@@
ジ@@
お@@
西
ΐ@@
川@@
舩@@
関@@
ṳ
۹
オ@@
水@@
ナ@@
生
京@@
ู@@
ल@@
ѕ
球@@
ĵ@@
स
Æ
能@@
Ό@@


โ@@
「
ह@@
林@@
子
κ
館
鋝@@
̯
克
呼@@
ป@@
ђ@@
花
ḥ@@
风
戴@@
县
ẩ@@
手
Δ
见
楽
里@@
ገ@@
食
♠
ș@@
り@@
金@@
谷@@
บ@@
ื
ド@@
ّ
ტ@@
त
ǔ
木@@
ん@@
来
็
开@@
℃
ќ@@
어
参@@
򮬩
ў
测@@
二
疫@@
ț@@
吧
Σ
可@@
が@@
ቀ@@
一
釉@@
ҙ@@
Ë@@

ṣ@@
も@@
木
音
王@@
ﾟ@@
ม
都@@
社
Ů
県
ح
郎
く
ि@@
˜
客
े@@
事
█
➲
į
კ@@
angemess@@
র
つ@@
く@@
Ŕ@@
บ
ล
ǘ@@
方@@
ბ@@
์
问@@
蛋@@
ิ@@
取@@
引@@
ṳ@@
知

ิ
Ņ@@
ち
宿@@
知@@
黄@@
注@@
한@@
Ą@@
♂
ʲ
渋@@
然@@
込@@
読@@
य@@
送@@
ユ@@
仮@@
ษ@@
۱
ּ@@
እ@@
直@@
只@@
体
⇗
歌@@
家
以@@
senschaft@@
黚@@
臘@@
ু@@
黵

Ѓ
መ@@
越@@
架@@
波@@
ถ@@
ნ@@
重@@
Ζ@@
ƒ
ッ@@
称
科
Schlussel@@
ნ
流@@
水
持@@
鰊@@
愛@@
ủ
↓
Ę
本
ق
ห
馬
ʀ@@
國
ኦ@@
机@@
真@@
て
应@@
美@@
み
국@@
日
პ@@
黨@@
ር@@
撮@@
अ@@
せ@@
ጨ@@
𲠤
ต
カ@@
ህ
检@@
۶
教@@
്
族@@
鋍@@
就@@
上
Б
ら@@
下
住@@
◙
去@@
ው
ხ@@
学@@
이@@
ٌ
无@@
ะ
実@@
ĉ@@
有
さ@@
ሻ
路
比@@
ǐ@@
پ@@
③
道
ү
若@@
株@@
ም@@
あ@@
አ
套@@
国
セ@@
⌘
遝@@
北
東
მ

त@@
ぢ
所@@

Ő
ニ@@
东
Χ
ɹ@@
久@@
德@@
ら
ḍ@@
必@@
头@@
ป
コ@@
许@@
为@@
禅@@
፣
Ě
क
ተ@@
თ@@
ম@@
出
व@@
র@@
𢥲@@
石@@
屋@@
ጽ
メ@@
ỹ@@
Ω@@
广@@
キ@@
起@@
구@@
通@@
城
ち@@
प@@
题@@
₩
三
ル
取
ץ
舐@@
প@@
ئ@@
ɐ@@
毛@@
湾
ְ@@
ी
ኣ@@
合@@
板

월
明@@
Α
ู
Ε
ɔ
ह
特@@
吸
む@@
始@@
揃@@
ক@@
Ṭ@@
题
ल
ồ
接@@
际@@
◦
心@@
育@@
届@@
ア
ร
ฆ@@
ֶ@@
へ
ວ@@
ɾ@@
Ř
を
ペ@@
乗@@
举@@
啦@@
keines@@
ˆ
八@@
泽@@
づ
￥
音@@
げ@@
শ@@
ɪ
东@@
龙@@
图
城@@
府@@
ს@@
梅@@
ư
チ@@
ღ
ງ@@
ນ
ِ
ỹ
ﬂ
振@@
ג
微@@
町
物@@
刨@@
橿@@
호
ῆ@@
▸
眼@@
ቶ@@
分@@
أ
寺@@
zeichnis
裂@@
表
〔
ề@@
ủ@@
阿@@
页
部@@
吊@@
加@@
♫
武@@
Ї
श
ो
〕
蒸
巻@@
甜@@
Ū@@
花@@
章
だ@@
プ@@
分
ک
ɑ
汤@@
闻@@
级@@
ั
徳@@
צ
普@@
暂@@
原
ो@@
火@@
刘@@
深@@
ራ
宮
ὁ
吹@@
超@@
性@@
镜
卓@@
უ@@
作@@
排@@
΄
才@@
《
话
ब@@
损@@
法
場
श@@
书@@
Κ
纹@@
查@@
塔
敦@@
ấ@@
や@@
क@@
☺
ἀ@@
港@@
ǔ@@
宜@@
ש
で
Ű
吸@@
援@@
タ@@
茶
陶@@
湖@@
士@@
欢@@
納@@
朝
𐌰@@
图@@
德
臺@@
中
۲
白
∈
ธ@@
ټ@@
郷@@
◇
ก
스@@
多@@
思@@
ベ@@
参
ς@@
設@@
余@@
よ@@
帝@@
Τ
ġ@@
じ
①
浦
唐@@
黡@@
Έ@@
ญ@@
こ@@
ィ@@
力@@
内
skau
牌@@
藤@@
抜@@
秀@@
配@@
十@@
后@@
極@@
何@@
片
全@@
ǒ@@
ዲ
ס
ŷ@@
گ@@
钱@@
ம
হ
陵@@
人
拼@@
表@@
Ź@@
ק
り
较@@
言@@
殿
う@@
》
Й
ぷ@@
영@@
द@@
握@@
ツ@@
彩@@
黃@@
ة@@
鰃@@
那
没@@
ሕ
回@@
ɑ@@
ッ
陀
庆@@
ব
从@@
熨@@
ホ@@
之@@
ụ@@
气@@
Œ
留@@
ش
角
江@@
ビ@@
म
ˇ@@
動@@
证
ザ@@
ț
口@@
ェ@@
ब
召@@
形@@
工@@
デ@@
舞@@
済
京
ヒ@@
ラ
；
鄂
掻
信@@
伦@@
物
钧@@
akfast
에
交@@
指@@
Ν
ẻ@@
云@@
グ
茶@@
۷
ภ@@
难@@
ợ@@
经@@
白@@
系@@
ǵ
루
년
珠@@
ә
國@@
以
臧@@
ክ@@
Ġ@@
ル@@
健@@
➔
高@@
ず
ุ
゜
鋒@@
신@@
车@@
堂
Ķ@@
百@@
ʔ
羽@@
四@@
房
ັ@@
切@@
Ъ
続@@
駅
血
ኤ@@
್
Ė
念@@
ア@@
ế
代@@
カ
想@@
足
兵@@
ึ@@
风@@
ġ
于@@
ო
Ҡ@@
ຖ@@
嘉@@
ז@@
州
⋅
Ù
溪@@
洛
情@@
ณ@@
応@@
ウ@@
妻@@
柴@@
民@@
龙
简@@
ฟ@@
ŝ@@
atürlich
ʀ

ɜ@@
愛
者@@
飞@@
鋖@@
盗@@
种@@
당
好
▲
க@@
近@@
香@@
竹
ธ
公@@
आ@@
福@@
立@@
ር
伯@@
書
皮@@
Џ
ຄ@@

☎
Π
ດ@@
悠@@
Ĺ
ſ@@
头
ት@@
𐌽@@
ば
ื@@
ມ@@
訓
む
藤
担@@
エ@@
空@@
į@@
建@@
ې
徒@@
え@@
Μ
ブ@@
ṇ@@
黵@@
盛@@
崎@@
☼
ʿ
商
饮@@
ン
ọ@@
鵜@@
迎@@
行@@

种
ত
试@@
箱@@
達@@
向@@
ŋ@@
ữ@@
ַ@@
↔
綺@@
浙@@
滬
館@@
而@@
𠐄
故@@
ʚ@@
紂@@
線@@
宰@@
酒@@
談
躇@@
ٲ@@
적@@
设@@
疑
属@@
路@@
越
ರ@@
세@@
配
连
ɫ
已@@
Į@@
خ
赤@@
曝@@
陳@@
ಐ@@
黮@@
Ù@@
景@@
済@@
癌
ˡ@@
伝
९@@
‼
ⲩ@@
際@@
々@@
䟩@@
椅@@
了@@
ス
答
挂@@
ㄤ
せ
군
寿
锋@@
術@@
投@@
散@@
联@@
經
謑
岭
ߖ
如@@
蜀
Ą
匹@@
玉@@
幸@@
非@@
˘
遇
ʌ@@
長
鋟@@
ค
歩@@
開@@
胜
ỏ
限@@
到@@
ु
ৰ@@
場@@
泥@@
芝
尾
宗
□
۵
剥

米@@
却@@
으@@
葉
◈
救@@
५
至@@
⅞
发
眩@@
彰@@
岭@@
ڠ@@
訓@@
毁@@
付
资@@
咆@@
施@@
叫@@
潟
友@@
ല@@
ॐ
摂@@
結@@
加
发@@
ঙ
做
鋑@@
반@@
靳@@
返
ڬ@@
ท
Л
学
ṛ@@
賀@@
ɔ@@
鰈@@
意
ぃ
娥
岐@@
胞
ೖ
帯@@
田
树@@
闽
ų@@
存@@
ὄ@@
讯
雅@@

證
仁
官@@
螨
𐍃@@
暫@@
否
니@@
迷@@
応
Ë
车
脱@@
崩@@
막@@
星@@
Є
魔@@
Ⅱ
서@@
ಾ
গ
喀@@
活
媛
Ρ
益@@
王
じ@@
耀@@
Ļ@@
拓@@
ⲟ@@
六
庫@@
작@@
细@@
Β
ध
ũ@@
☑
臂@@
њ
Υ
井@@
ा
班@@
颐
嵥@@
記
螳@@
あ
岩@@
ắ@@
身
ュ@@
ድ@@
殊@@
耳@@
帝
込
元
②
𐌸@@
立
墟
凄
決@@
製@@
甲@@
ც@@
ʼ@@
ۆ@@
函@@
ผ@@
満
欢
臈@@
熟@@
利@@
艳@@
Ė@@
話
θ
๑
副@@
羅
痛@@
娄@@
士
Ώ@@
约@@
柱@@
ể
檀@@
折@@
预@@
管@@
ケ
宗@@
อ
巨@@
汕@@
級
〜
丽@@
申
到
請
भ@@
パ@@
み@@
松
氏
嗣@@
森@@
門@@
瓶@@
律@@

虑@@
札
湖
义@@
列
鹈@@
桃@@
苑@@
九@@
节
ې@@
顗
产@@
票@@
純@@
臓
丸
讲@@
ण
根
太@@
惯@@
ء@@
☻
Ê
桂@@
墩
ฝ@@
회
希@@
布@@
자
続
έ
郡
Ю
ी@@
罪

防@@
१@@
Ⲡ@@
ḿ
ய@@
纸@@
検@@
今@@
ろ@@
妻
๊
老
圏
頑
贳
周
Ζ
辞
鰎@@
︰
降
六@@
漫@@
𐌴@@
庄@@
번
ừ@@
奄@@
寨
赵@@
き
凶@@
鰄@@
遣@@
货
货@@
鐵@@
螨@@
摇@@
咬@@
亞@@
Ȼ@@
和
體
影@@
阳@@
ẽ
役@@
确@@
巴
織@@
问
蔓@@
泊@@
呀@@
ʃ
弦
牙@@
ダ@@
单@@
鱼
膚
천
册
셜
智@@
ド
版@@
记
斗
讣@@
视@@
づ@@
ĸ@@
折
ょ@@
須@@

主@@
会
拉@@
░
ؤ@@
殷@@
間
阜@@
茜
富@@
受@@
ட@@
澄
ℓ@@
宜
？
親@@
ர@@
井
티@@
義@@
汉@@
報

央@@
ợ
耶@@
法@@
小
技@@
ট
价
倒@@
ு@@
楽@@
ŝ
浄@@
業
폐@@
考@@
ځ@@
鲞@@
量
舊@@
雛@@
창@@
伴
群@@
ṅ@@
ĉ
略@@
璐
杭@@

後@@
航@@
പ
確@@
对
ｔ@@
な@@
飯@@
次@@
四
転@@
𲠄
诘@@
幹@@
习@@
动
逃@@
凄@@
ֹ@@
ự
土
य
Ĳ@@
軍
ɡ@@
＊
박@@
居@@
張
대@@
に
郎@@
ர
ね
Щ@@
矢
应
ỏ@@
油
주
豆
化
縮@@
ศ
로
≠
ക
򲵮
단@@
͡
ɢ@@
었@@
明
但
徳
지@@
紧@@
ば@@
ம@@
憾
横@@
线@@
腹@@
ɡ
二@@
۴
调@@
Ṯ@@
反@@
る@@
索
貮@@
ゥ@@
ქ@@
奉@@
न
喜@@
度@@
畢@@
ɒ
哮
版
夕@@
危@@
競@@
戸
법@@
த@@
川
ビ
향@@
忆
泉
ご@@
些@@
賢
疗
怒@@
△
羲
野@@
申@@
侍
貌
傷
味@@
礼@@
急
χ
英@@
死
輪@@
売@@
贱@@
ǣ@@
歳@@
交
旅@@
見
臨@@
記@@
빛@@
土@@
Ŀ@@
話@@
静@@
ṃ@@
济@@
征@@
弄@@
七@@
壮@@
術
⌃
조@@
項
市@@
社@@
遝
着@@
材
ন@@
言
吃@@
ഷ@@
徹@@
爪@@
∫

ầ@@
ு
Ç
席
贡@@
庫
置@@
地@@
ズ
菱
谷
ग@@
悪@@
ⁿ
마@@
𐍉@@
田@@
稱
垣@@
底@@
畿@@
烦@@
喜
れ
斗@@
势@@
验@@
显@@
試@@
赛@@
场
₴
料
Ἥ@@
遗@@
首@@
是
ช
南@@
다
ἅ@@
稼
片@@
重
ⲉ@@
率@@
사
麩@@
성@@
ว
崔
务
要@@
വ@@
面@@
什@@
無@@
े
剣@@
茨@@
溝@@
安
ሰ@@
逸
騜@@
俊
ባ@@
戸@@
っ
왕@@
医@@
ட
ム
Ј@@
作
ẵ@@
黒
点
呼
Ь
ስ@@
ǎ
菜@@
ǜ
別@@
ố
宣@@
ừ
了
男
鰀@@
ವ@@
号
遽
鳳@@
弓
验
ዋ
合
计@@
ḥ
⅛
珠
ḍ
۳
夷
ĝ
站@@
沈@@
狐
ɛ
黷@@
Λ
变@@
昇

告@@
ふ@@
禪
Ň
剑
幡@@
掉@@
∀
ম
蔚
㎡
列@@
沱@@
바@@
寧@@
風@@
元@@
च@@
您@@
数
祸
०@@
伝@@
进@@
画
尘@@
事@@
ಯ@@
繁
唐
芝@@
两@@

佑@@
荣@@
鴻@@
秋
助
ʺ@@
看@@
果@@
像
돌
圆@@
豆@@
璃
皇
外
☏
秉@@
晏@@
̶
旧@@
探
祝@@
Ш
儀
業@@
Ў
呑@@
坐@@
哲@@
𐌼@@
소@@
変@@
চ@@
छ@@
؛
夏@@
ⲣ@@
인@@
δ
急@@
ζ
程@@
平
示@@
切
Ǻ
़

遪@@
料@@
ج
楼
寤@@
门
照@@
氣
拿@@
ʰ@@
ট@@
א
ィ
Ẳ@@
途
ワ
爆@@
哈
ರ
腹
载
鈴@@
߮
佰
ব@@
ث
夢@@
ĸ
倍
Ŝ@@
园
州@@
旨@@
ぞ@@
比
宝@@
近
ĥ
勧@@
设
佑
ﷲ
目
ơ
钓
伎@@
止@@
ḫ@@
庆
湾@@
绞
祿@@
추@@
ῦ@@
济
氏@@
円

群
内@@
朱@@
𐍃
ѓ
ぎ@@
及@@
구
请
創@@
庚
Щ
针@@
丹@@
諸@@
皇@@
ﬁ
植
ʐ
ĩ
終@@
유@@
ゴ@@
ぢ@@
卡@@
呉@@
見@@
ソ@@
婁
回
伸@@
짝@@
ב
汇@@
ứ@@
竞@@
步
慣@@
晨@@
俊@@
休@@
馬@@
デ
ಶ
春@@
お
ά@@
宁@@
ት
植@@
乌@@
郑@@
Ⰶ
第@@
质@@
嘛
た
处
ề
找@@
其@@
고
丨@@
ப@@
引
沪
ｿ@@
行
線
ク@@
隆@@
献
Φ
ฎ@@
胡
맨@@
습@@
ৰ
著@@
徽
시
苏@@
専@@
惧@@
ি@@
弁
ज
飼
ʁ
球
哈@@
匠
ボ@@
父
閣@@

页@@
仲
ण@@
鹤@@
迎
酉@@
降@@
ோ@@
怡@@
沙@@
校
溢@@
野
ॉ@@
互@@
膚@@
纽@@
挡@@
雅
岷@@
ờ
│
现
圳
ɒ@@
験
网
从
문@@
囧
呆@@
要
ⲉ
थ@@
╞
ὺ
ീ@@
之
ظ@@
➟
ؒ@@
団
ض
志@@
､
戶@@
치@@
澤@@
ص
総@@
这
ǝ
ἔ@@
礱@@
条@@
प
月
疆
固
跨
携@@
謑@@
∑
ˁ@@
ɕ@@
畿
체@@
龍
暴@@
∴
辱@@
写@@
语@@
ロ@@
검
蘇
터
는
便@@
流
こ
나@@
舍@@
ゲ@@
谢@@
Ы@@
屈@@
Θ
君@@
这@@
新
ネ@@
ἄ@@
佐@@
理
ẋ@@
保@@
丘@@
ґ
ὶ
裕@@
涂
钦
ĵ
航
۳@@
动@@
踌@@
郝@@
放@@
ŵ@@
𧵮@@
得@@
致
द
া@@
閩
赶@@
你
➚
ส
紅@@
受
永@@
님
几@@
码@@
瑠@@
経@@
敏@@
販@@
报@@
۸
睦@@
ミ@@
ʦ
户@@
汴
筆@@
宇@@
整@@
麗@@
ῥ@@
飼@@
ỳ@@
̃
濟@@
ʤ
纸
啤@@
报
孴
塾
琢
별@@
グ@@
ቐ@@
や
孴@@
遭@@
読
娃
Ō
ি
資@@
ücksichti@@
實@@
时@@
唸@@
ử@@
鼻@@
゛

坊
慢@@
实@@
ദ
翁@@
이
說@@
吉@@
厂@@
押@@
灾@@
Ź
ூ@@
吉
蝦@@
部
试
煮@@
爱@@
间
潮@@
층@@
汤
ｲ
Ľ
ೆ@@
躍@@
훈
谢
吴@@
埔
長@@
端@@
遲
朝@@
彭@@
光
恵@@
勿@@
覧@@
省@@
員
．
ং@@
鹿@@
򴩧
儉
ፈ
家@@
򮮥
ን@@
ト
葉@@
器@@
光@@
父@@
悩
뀌@@
志
髄@@
道@@
일
த
鬼
洋@@
正
ɫ@@
򲤥
師
将@@
村
드
活@@
ダ
辛
Ѕ
̀
疫
焼@@
集
電@@
柔@@
