the
.
,
of
and
to
in
a
is
that
for
on
The
with
are
be
I
as
this
it
not
we
have
you
by
will
from
at
an
which
or
can
has
(
)
our
was
all
European
also
:
&apos;s
your
We
&quot;
-
its
In
This
s
more
would
It
but
their
been
one
’
should
Mr
do
must
very
Commission
new
?
there
they
like
about
only
us
time
other
&apos;
President
/
these
-@@
up
so
no
if
who
any
out
!
Europe
Union
into
people
A
were
Parliament
use
what
than
S@@
re@@
need
report
such
countries
my
States
most
now
some
Member
important
–
when
first
well
work
make
in@@
many
his
un@@
them
hotel
EU
take
between
Council
way
information
If
k@@
t
...
years
support
o
just
made
because
am
able
two
d@@
over
;
world
P@@
s@@
C@@
i
had
B@@
de
he
A@@
system
policy
D@@
T@@
may
where
You
those
M@@
er
being
G@@
even
year
good
right
F@@
area
There
E@@
K@@
H@@
see
here
place
order
For
L@@
As
market
t@@
p@@
R@@
possible
part
after
en
used
b@@
e@@
same
through
want
%
could
does
“
2
1
e
therefore
ing
development
political
own
o@@
economic
me
much
within
how
W@@
g@@
find
both
n@@
against
then
y
available
Hotel
es
N@@
rights
That
point
country
ed
without
number
”
V@@
under
c@@
en@@
still
different
services
international
public
ers
m
an@@
great
But
i@@
room
m@@
al
z@@
already
products
course
last
offers
too
3
know
free
view
service
future
before
get
f@@
dis@@
believe
end
today
set
fact
say
data
social
think
ted
process
y@@
Our
day
case
h@@
quality
rooms
er@@
level
O@@
city
ation
However
high
ate
.@@
best
Commissioner
I@@
al@@
issue
debate
during
every
u@@
ts
financial
question
human
help
offer
example
business
a@@
means
j@@
said
ch@@
small
each
ar@@
de@@
national
v@@
All
long
proposal
situation
access
since
l@@
go
clear
5
including
is@@
4
k
few
provide
give
on@@
problem
areas
next
ti@@
On
energy
taken
company
They
particular
further
large
stay
common
agreement
again
To
put
measures
back
her
change
ated
why
located
With
J@@
three
ensure
however
d
vote
problems
come
citizens
le@@
At
What
using
le
n
far
at@@
w@@
position
needs
based
And
security
always
necessary
form
es@@
it@@
di@@
action
li@@
l
less
10
shall
These
group
cooperation
given
hope
am@@
or@@
while
st@@
as@@
When
life
better
around
main
im@@
r@@
did
el@@
ter
&amp;
Committee
special
ting
production
per
current
down
become
working
power
law
g
centre
ating
Re@@
systems
page
full
open
protection
present
der
United
children
real
another
trade
te@@
together
result
Z@@
experience
Group
2@@
co@@
Mrs
companies
issues
particularly
site
tions
terms
conditions
p
state
House
whether
legal
industry
u
th@@
ar
control
water
second
ab@@
done
si@@
matter
ad@@
age
U@@
6
old
con@@
close
role
look
whole
te
3@@
line
really
various
government
Al@@
ro@@
In@@
women
sector
US
certain
local
days
account
x
basis
health
ri@@
especially
region
se@@
range
specific
location
Germany
making
customers
budget
modern
Community
research
million
global
several
30
project
ac@@
fully
continue
20
red
tion
ra@@
major
something
going
software
away
management
welcome
German
respect
name
crisis
start
wish
ly
often
He
list
itself
rapporteur
resolution
z
create
excellent
n&apos;t
product
growth
price
programme
b
ask
c
found
2009
money
ine
thank
7
single
little
environment
staff
ent
ding
food
rules
directive
transport
Madam
following
regard
So
als
lo@@
individual
gentlemen
technology
once
No
side
off
least
hand
third
until
general
la
subject
8
private
things
ul@@
increase
towards
po@@
personal
building
key
family
S
field
ag@@
China
opportunity
be@@
C
forward
approach
institutions
activities
ol@@
ic@@
play
After
town
solution
us@@
design
home
sp@@
19@@
quite
interest
let
Con@@
ations
yet
costs
call
E
ap@@
4@@
value
economy
version
website
contact
em@@
et
il@@
him
provided
aid
provides
enjoy
agree
points
resources
include
One
minutes
ant
&#91;
rather
T
makes
Treaty
times
allow
members
el
ings
might
reason
period
questions
proposals
ten
amendments
&#93;
easy
safety
Members
decision
left
results
om@@
projects
ve
difficult
among
led
15
progress
X@@
application
taking
se
addition
50
e-@@
show
light
O
op@@
Please
called
legislation
adopted
favour
beautiful
having
simply
complete
attention
responsibility
ladies
no@@
framework
short
ur@@
Y@@
others
due
ous
effective
air
known
text
opinion
Mar@@
la@@
concerned
ge@@
house
ver@@
above
groups
2010
ren@@
required
strategy
sure
tes
step
D
Internet
importance
12
try
pre@@
policies
address
please
standards
solutions
State
tra@@
to@@
heart
ist
tr@@
environmental
ne@@
natural
user
An@@
ally
ans
x@@
ge
ago
over@@
directly
ic
greater
mo@@
World
guests
online
content
training
Russia
é@@
society
ates
pro@@
technical
non-@@
&apos;@@
recent
principle
kind
enough
via
sea
h
needed
along
os
pe@@
deal
she
2008
clearly
meeting
views
currently
ch
rate
developed
From
requirements
words
achieve
visit
longer
man
essential
past
00
thing
lot
markets
land
facilities
bi@@
per@@
risk
ir@@
months
events
person
et@@
serious
authorities
ks
feel
9
file
bring
ds
changes
central
res
history
he@@
proposed
keep
nature
near
cultural
voted
related
bo@@
des
network
responsible
station
top
breakfast
qu@@
ex@@
inter@@
car
team
prices
5@@
efforts
situated
extremely
parties
never
internal
comes
behalf
language
comfortable
ment
employment
EUR
strong
New
ded
young
democracy
century
competition
Ar@@
vi@@
involved
space
unique
cases
success
positive
total
themselves
works
ou@@
interests
wide
restaurant
implementation
additional
standard
four
ph@@
created
event
share
request
ta@@
regulation
receive
turn
developing
ha@@
ni@@
ci@@
How
designed
les
rates
cost
pay
est
program
improve
bar
upon
almost
democratic
International
true
Mo@@
live
beach
r
um
regions
Pro@@
peace
negotiations
meet
km
either
care
force
soon
table
freedom
looking
states
night
ability
ma@@
features
me@@
type
art
everything
ve@@
king
Sch@@
climate
regional
De@@
users
held
takes
war
education
B
effect
consider
6@@
music
th
funds
seen
accept
ator
thus
mis@@
ter@@
included
ways
understand
pool
foreign
though
famous
P
By
book
res@@
par@@
100
date
ia
investment
car@@
according
pages
road
ance
ak@@
lead
idea
ideal
ever
capital
ho@@
0@@
parts
run
friendly
2007
Presidency
ber@@
reach
week
ec@@
fundamental
hours
living
mentioned
7@@
later
ity
bed
actually
big
18@@
appropriate
France
doing
amount
tax
outside
customer
perfect
early
existing
ke
concerns
French
men
card
across
direct
act
throughout
procedure
allows
hard
plan
&#124;
traditional
connection
ten@@
11
significant
guarantee
certainly
8@@
communication
Since
25
took
for@@
Here
My
leading
um@@
writing
game
etc
workers
final
completely
reform
Let
M
professional
applications
TV
reviews
built
majority
remain
term
R
tu@@
apply
test
member
files
tive
Turkey
body
+
aware
below
low
t-@@
holiday
send
includes
rest
ves
knowledge
nothing
ling
American
sh@@
ass@@
F
impact
function
five
media
Co@@
America
que
read
active
reasons
choice
000
An
package
*
context
guest
board
walk
style
cu@@
performance
gu@@
contains
relations
ons
moment
equipment
equipped
community
population
original
pl@@
re
end@@
established
partners
military
quickly
sc@@
received
‘
image
f
entire
simple
successful
check
Ch@@
values
sa@@
decisions
committee
model
demand
focus
internet
ing@@
out@@
basic
programmes
X
Th@@
practice
web
develop
9@@
gi@@
com@@
face
und
Some
2000
der@@
jobs
Finally
stage
tic
move
answer
concerning
stop
do@@
Ro@@
material
sense
Government
agreements
reports
benefit
treatment
culture
huge
regarding
_
ins
choose
English
concern
center
ob@@
seems
ed@@
aim
2006
tor
added
Lisbon
ary
av@@
potential
Therefore
Now
increased
closed
achieved
Ex@@
party
agricultural
Li@@
size
40
recently
1@@
st
integration
fight
objectives
return
®
mean
au@@
objective
sion
ste@@
L
goods
Le@@
shows
Car@@
latest
ise
May
euro
everyone
beginning
submitted
note
levels
higher
rec@@
man@@
under@@
floor
Bo@@
shown
hi@@
office
complex
asked
job
Ad@@
tri@@
highly
ments
easily
governments
June
coming
computer
ig@@
places
South
consumers
accommodation
sites
indeed
initiative
direction
Of
ö@@
ent@@
vo@@
ä@@
prevent
search
id@@
although
add
N
di
presented
mind
ru@@
press
du@@
sustainable
14
gra@@
details
remains
24
front
agreed
pa@@
bus
Court
amendment
1.@@
series
lu@@
lines
atmosphere
nuclear
na@@
ps
enable
$
East
balance
ness
fi@@
mon@@
travel
forms
hotels
lack
popular
charge
carried
dialogue
setting
materials
nice
effects
trans@@
ses
w
commitment
ms
opportunities
rich
summer
behind
reduce
ad
lies
reached
sub@@
ice
pressure
response
thanks
previous
Di@@
considered
Spain
Berlin
click
efficient
prepared
ü@@
gives
son
actions
matters
ite
half
G
speak
ors
exchange
capacity
ill@@
billion
18
Today
10@@
increasing
ner
code
ard
0
supported
supply
y-@@
gh@@
ical
principles
oil
fair
ta
produced
video
re-@@
largest
came
.com
follow
sound
industrial
September
Do
aspects
external
possibility
priority
Com@@
ale
cause
ones
First
uses
Africa
En@@
perhaps
former
providing
joint
safe
leave
pleased
promote
limited
protect
double
ot@@
ties
independent
Many
commercial
relevant
island
source
ur
Central
2005
steps
16
d-@@
started
ators
funding
produce
mer@@
link
clean
variety
Se@@
consumer
property
ies
message
decided
December
apartment
section
enlargement
credit
creation
option
IT
similar
v
Ma@@
interesting
structure
partner
download
su@@
ship
il
whose
sch@@
ke@@
20@@
construction
tool
ty
conference
distribution
discussion
allowed
bu@@
Italy
del
October
so@@
regulations
�
IN@@
During
den
bar@@
creating
assistance
á@@
January
March
wi@@
tics
ourselves
ism
written
stability
distance
Bank
tor@@
ning
inc@@
restaurants
require
Your
brought
document
ality
ground
benefits
activity
fe@@
airport
enter
round
rule
ka
ches
da
word
growing
Windows
purpose
2004
payment
movement
Be@@
13
bit
civil
compromise
Furthermore
park
happy
server
sk@@
ters
British
became
drive
go@@
tell
ver
ative
€
integrated
tools
types
statement
Article
July
Mon@@
ne
ure
ev@@
status
employees
gas
links
requires
die
Thank
ents
concept
ving
documents
K
task
immediately
Affairs
quiet
village
highest
paid
effort
school
instead
stand
ang@@
study
damage
self-@@
base
violence
ana
procedures
late
Service
apartments
ff@@
ce
contribution
2.@@
ence
oc@@
daily
processes
operation
ying
dr@@
giving
challenges
goes
agenda
phone
den@@
instruments
Convention
ry
é
fishing
mar@@
Even
Cor@@
transparency
ma
six
AS@@
lower
all@@
ina
AR@@
historical
La
offering
digital
ics
got
friends
id
clients
Gu@@
historic
efficiency
ful
elements
up@@
item
National
class
Bar@@
November
Republic
avoid
ut@@
criteria
mobile
Minister
talk
review
parking
train
gen@@
ess@@
analysis
ker
ked
est@@
tion@@
relation
options
sales
numerous
regards
applied
Italian
17@@
hold
sur@@
draft
cur@@
official
worldwide
news
the@@
expect
elections
useful
speed
comprehensive
congratulate
tomorrow
forces
reality
mi@@
offered
ideas
provisions
changed
and@@
comp@@
machine
implemented
Although
uc@@
secure
lives
Spanish
consequences
Po@@
Par@@
Is
Moreover
we@@
nor
technologies
reading
lan@@
learn
sent
men@@
practical
express
operating
conflict
cor@@
ski
published
equal
keyword
2003
challenge
North
ach@@
colleagues
starting
interested
crucial
UN
fo@@
players
60
April
selection
15@@
build
maximum
weeks
Y
ay
IC@@
legislative
shopping
Only
sive
poverty
ready
wanted
Western
pass
fine
minimum
innovative
extra
rise
solidarity
beyond
bl@@
min@@
bathroom
ering
persons
leaders
ists
sed
pi@@
finally
Amendment
80
long-term
draw
cut
V
raised
month
images
player
St@@
00@@
email
ze
transfer
Qu@@
ages
gl@@
alone
box
begin
ade
menu
film
poor
waste
head
carry
banks
Mediterranean
anything
IS@@
probably
comfort
ano
saying
wine
monitoring
voting
death
ines
port
labour
RE@@
200
iz@@
release
AN@@
sometimes
mountain
morning
annual
method
Secondly
ery
Chinese
17
reduction
yourself
games
organisations
garden
terrorism
Indeed
fl@@
fac@@
Or@@
II
languages
While
methods
met
visitors
establish
lin@@
More
chance
Inter@@
advantage
AT@@
har@@
ler
instrument
processing
child
reference
Its
automatically
cities
farmers
ay@@
EN@@
Park
Israel
fields
green
fast
fin@@
Austria
sports
0.@@
Development
businesses
br@@
worked
s-@@
innovation
lost
fall
ian
eli@@
Sh@@
caused
running
suitable
500
street
accepted
target
Why
influence
bank
na
strategic
ow@@
16@@
absolutely
doubt
sen@@
map
walking
DE
For@@
mention
usually
terrace
dec@@
EC@@
thought
ture
H
Ireland
comments
va
Each
Dis@@
ir
Tra@@
helpful
accession
Russian
scientific
str@@
No@@
join
GmbH
demands
fish
implement
ants
sectors
placed
e-mail
un
listed
installation
Paris
affected
her@@
lic@@
alternative
2001
tur@@
feature
Q@@
overall
a-@@
supports
19
Rights
swimming
scope
ba@@
trying
mainly
calls
sitting
City
cover
improved
ven@@
reforms
goal
currency
ris@@
planning
ak
ple@@
extent
ically
evening
photo
Then
critical
Lo@@
increasingly
larger
accordance
ce@@
vital
www.@@
correct
anti-@@
bur@@
powers
committed
General
Ac@@
delivery
heard
и@@
Un@@
powerful
Party
Japan
functions
protected
getting
ens
ges
plans
ran@@
talking
intended
confidence
21
competitive
decide
border
ari@@
W
love
borders
maintain
az@@
extensive
administration
plant
minute
Also
emissions
12@@
London
ders
relationship
ung
selected
reduced
contract
plants
AG
separate
im
screen
gr@@
families
students
traffic
opening
detailed
relating
ca
camera
proper
ably
inf@@
University
served
programs
Room
sing
Ho@@
Directive
Fund
tic@@
Just
Ne@@
2002
justice
pres@@
serve
West
initiatives
likely
founded
ER@@
shop
infrastructure
regime
berg
pleasant
adopt
metres
defined
Iraq
motion
despite
President-in-Office
ats
tors
Web
wrong
covered
India
22
laws
white
Conference
opened
des@@
sources
approved
introduced
tourist
collection
says
trust
born
San
Not
fa@@
expressed
ls
structural
che
track
ber
exist
Click
Centre
UK
electronic
al-@@
Ber@@
signed
sta@@
bad
priorities
debt
Unfortunately
IT@@
exactly
oo@@
wants
Ver@@
representatives
bre@@
appear
risks
select
col@@
stress
else
net
unemployment
Im@@
began
financing
sign
&apos;ll
regular
worth
encourage
contribute
Bi@@
illegal
animals
effectively
Au@@
developments
client
ino
circumstances
war@@
managed
ars
tabled
Greece
14@@
ble
expected
AC@@
PC
Most
represents
pe
discussed
discuss
measure
wonderful
,000
star
ich@@
understanding
conclusion
Ri@@
becoming
sha@@
happen
speaking
modified
victims
loss
beds
pu@@
components
entry
warm
dy
ica
cohesion
save
Sp@@
ca@@
tour
record
partnership
played
limit
Public
e.g.
ess
houses
agriculture
connected
Euro@@
spend
winter
income
February
purposes
inside
ton
mat@@
August
crime
closely
mer
27
paper
era
Switzerland
exclusive
sufficient
emb@@
People
alism
positions
Once
discussions
She
linked
medical
purchase
hour
4.@@
our@@
spacious
operations
kitchen
mark
fresh
path
followed
Because
Asia
AL@@
cl@@
fun
Me@@
machines
rural
buildings
Per@@
buy
Iran
Man@@
ish
sal@@
season
playing
manner
Jo@@
telephone
Security
thousands
stated
ese
3.@@
assessment
facing
70
aw@@
ensuring
ently
gen
rent
back@@
items
reg@@
1999
referred
considerable
ire
23
tional
ising
participation
precisely
mu@@
ns
earlier
experts
marketing
introduction
applies
Barcelona
..
went
ously
Si@@
om
shops
police
Nations
well-@@
namely
aimed
Debian
strengthen
represent
bs
fellow
average
broad
display
His
log@@
otherwise
generation
database
specifically
typical
ft
remember
--
fixed
hear
Gi@@
tradition
Middle
supporting
properly
district
Poland
Airport
hor@@
13@@
cards
format
guidelines
90
administrative
sw@@
enterprises
estate
charged
tly
ra
rac@@
degree
tical
experienced
seem
availability
entirely
According
difference
Free
che@@
advanced
trip
budgetary
í@@
hot
numbers
Rooms
Sea
speech
eri@@
ger
reservation
picture
Vi@@
domestic
stone
informed
Czech
vis@@
Every
appears
stable
easier
cuisine
ep@@
thinking
becomes
ud@@
organisation
—
networks
improving
Linux
refer
mal@@
button
vehicles
so-called
summit
competitiveness
´
dic@@
normal
flexible
ty@@
Due
Swiss
institutional
ize
ile
tourism
presidency
ore
ue
He@@
bor@@
iting
Bu@@
whom
off@@
discrimination
IS
character
combination
courses
Wi@@
Agreement
attractive
So@@
Ba@@
cli@@
alised
generally
stri@@
print
politics
animal
are@@
att@@
immigration
presence
pr@@
flexibility
installed
models
sport
actual
Brussels
packages
Ukraine
del@@
meetings
Lu@@
peaceful
gave
ard@@
Firstly
co
coordination
300
ME@@
core
prior
ser@@
Guest
pictures
ens@@
Her@@
CO@@
weight
election
Ste@@
Pal@@
shower
spirit
forget
dealing
loc@@
work@@
valid
carefully
threat
door
resort
OS
ban
zone
relax
reasonable
Booking.com
reception
5.@@
ends
economies
Te@@
ant@@
mission
af@@
detail
seriously
scale
votes
elegant
ash@@
aspect
difficulties
consideration
ing-@@
translation
sti@@
hu@@
ahead
nation
War
enables
devices
exhibition
authority
Er@@
Such
continued
o-@@
session
kers
reliable
consumption
sets
provision
gain
ick@@
»
trading
Su@@
released
eg@@
registered
parliamentary
bodies
beaches
aims
ali@@
coffee
Another
monetary
zi@@
changing
Go@@
os@@
combat
differences
bas@@
booking
mail
meters
ban@@
architecture
happened
leader
statements
à
ory
stock
concrete
advance
balanced
possibilities
color
fisheries
recommend
dangerous
Amsterdam
sts
Gra@@
failure
structures
wood
ours
told
mm
south
IM@@
USA
names
myself
med
install
Are
fied
passed
U
arrival
spent
raise
fund
nearby
anyone
continues
ash
ES@@
hands
ill
Yet
tw@@
La@@
contain
element
announced
pre-@@
finance
improvement
dly
completed
can@@
fying
jo@@
impossible
ast@@
platform
wishes
cars
ear@@
membership
respond
evidence
pri@@
associated
Fi@@
unacceptable
Social
relaxing
introduce
Mi@@
ned
agencies
stands
tasks
speci@@
reducing
interface
brand
black
studies
sel@@
Kingdom
combined
strongly
article
device
practices
in-@@
skills
ell@@
acts
firm
&apos;re
origin
surface
truly
biggest
establishment
ancient
window
sides
holidays
&gt;
fiscal
por@@
immediate
ER
inform
ships
humanitarian
corporate
producers
Sta@@
Can
keeping
spending
opposition
je@@
insurance
ging
ini
fire
river
negative
learning
head@@
campaign
wa@@
Fe@@
duty
described
attempt
Ta@@
surrounding
figures
comment
cre@@
shared
za
implementing
guarantees
ther@@
Nevertheless
ll
wh@@
El@@
Europeans
storage
manage
200@@
co-@@
fu@@
er-@@
kept
о@@
Pre@@
35
update
instance
LE@@
voice
participate
sun@@
sale
ched
Val@@
defence
obtain
post
attractions
Irish
sa
ron@@
elected
ys
sensitive
greatest
dedicated
Services
Op@@
Thus
railway
grounds
himself
wor@@
-based
ingly
Har@@
memory
Economic
pan@@
piece
sting
win
au
Board
fil@@
Ab@@
Great
CD
engine
accessible
anc@@
UN@@
closer
propose
orders
ó@@
promoting
guide
ved
unfortunately
super@@
gre@@
criminal
compared
Rec@@
е@@
ie
York
allowing
ised
We@@
middle
totally
buffet
won
sun
enormous
tis@@
advice
RO@@
luxury
star@@
26
union
genuine
acc@@
seek
fear
28
Policy
write
beauty
ening
failed
ati@@
Both
Those
calling
discover
tically
Human
Pi@@
extended
mp@@
,@@
coast
high-@@
enti@@
chosen
advertising
ST@@
recognition
ged
approximately
transparent
television
rou@@
successfully
ware
controls
vision
religious
ES
testing
outcome
WTO
ju@@
Management
cas@@
convinced
moving
background
perfectly
read@@
Col@@
square
one-@@
furnished
ion
condition
permanent
ff
St.
flight
export
van
Mal@@
race
disease
ere
Netherlands
mountains
ambitious
Business
bear
ys@@
deliver
ei@@
forced
urgent
exp@@
unit
payments
tures
organization
unless
Office
AD@@
perspective
Minutes
maintenance
cher
ja
def@@
African
Sal@@
Museum
Center
stra@@
vehicle
initial
31
sort
Located
constantly
ann@@
adoption
Find
targets
land@@
drawn
individuals
photos
bars
leg@@
expensive
Any
surrounded
ast
High
Enjoy
Prime
k-@@
Kosovo
break
dynamic
Green
ances
hand@@
agency
books
Turkish
ou
Research
God
weapons
bra@@
factors
Mor@@
Eastern
exercise
ick
ath
eb@@
advantages
limits
contents
goals
val@@
Vienna
sen
lake
club
claims
Greek
participants
а@@
outstanding
science
stations
ef@@
tried
touch
story
ports
registration
host
Por@@
bath
tre@@
desire
organised
consists
manufacturing
attack
category
onto
pen@@
IL@@
Club
win@@
route
Ter@@
factor
Restaurant
versions
cap@@
Du@@
Ca@@
lis@@
operate
Christian
Thanks
ring
rightly
unable
territory
binding
System
honourable
foot
landscape
monitor
waiting
qualified
contrary
entitled
aircraft
lets
EC
decades
ets
yesterday
Other
planned
glass
Very
brings
ON@@
court
physical
29
leads
granted
signal
Red
convenient
definition
pp@@
6.@@
pat@@
neither
anti@@
tests
disposal
flow
obviously
ist@@
on-@@
TE@@
nearly
store
conclusions
ket
commitments
saw
ili@@
von
candidate
bri@@
deep
Tri@@
artists
independence
pol@@
1998
recovery
air@@
skin
treated
church
Min@@
ro
examples
steel
micro@@
obvious
burg
Mat@@
smaller
j
tal@@
Microsoft
Mil@@
achieving
ken
ths
pleasure
asylum
ate@@
continuing
colleague
dates
Mer@@
vel@@
wall
claim
register
gets
ada
lose
patients
Sweden
someone
Austrian
spread
Palestinian
tim@@
zed
dra@@
consistent
cul@@
ures
hostels
default
=
Information
contemporary
multi@@
Rules
turned
Trade
@
Association
Portugal
ase
cal@@
existence
ement
older
Ben@@
guaranteed
acceptable
enc@@
nations
spaces
causes
down@@
mode
web@@
asking
app@@
amp@@
Cal@@
Lin@@
driving
Constitution
institution
Before
rapid
2-@@
merely
north
recommendations
expenditure
mechanism
primary
gar@@
els
contained
Wal@@
bringing
rer
valuable
tel
addressed
governance
fuel
object
p.m.
ual
Bar
remind
ori@@
expression
remove
fit
Lake
ba
ah@@
species
manufacturers
syn@@
du
seven
arms
45
EL@@
Note
ley
zing
cat@@
situations
spa
explain
ass
forest
Sa@@
substantial
satellite
multiple
Take
notice
Software
visible
fer@@
title
copy
determined
browser
runs
paragraph
intervention
obligations
prevention
industries
ell
Bel@@
phase
plus
marked
ming
extend
sions
Breakfast
ub@@
putting
Grand
Justice
communities
promotion
texts
GDP
delivered
Despite
helps
golf
investments
quick
named
equality
50@@
Federal
mass
technological
standing
significantly
dig@@
ich
attacks
schools
urban
serves
kinds
Health
primarily
diversity
tt@@
cra@@
mus@@
pointed
websites
leadership
sli@@
los
entered
seeking
evaluation
run@@
dishes
talks
ai@@
Romania
eng@@
Ko@@
capable
ards
fy
Two
establishing
i.e.
previously
Cas@@
ized
delay
acy
expertise
Res@@
Summit
opposite
presentation
ine@@
multi-@@
accounts
Use
compliance
reply
medium-sized
laid
…
ined
н@@
sup@@
hal@@
prepare
qui@@
responsibilities
gone
Latin
fill
resulting
Tor@@
ination
bedroom
conclude
explo@@
mann
launched
requested
Welcome
competence
discussing
recommended
controlled
shape
IP
Agency
solve
locations
length
strength
urge
adequate
clo@@
engineering
consensus
ball
Dutch
speakers
rail
dealt
ze@@
charming
covers
southern
fun@@
feeling
output
32
association
atory
experiences
с@@
wait
«
sanctions
expectations
moved
units
improvements
temperature
dimension
DVD
appreciate
identity
temporary
Bor@@
Pe@@
knows
furniture
taste
privacy
eight
charges
affect
healthy
form@@
destination
sell
meaning
ang
Where
liability
To@@
sian
requests
cheap
relatively
ach
ices
ti
MA@@
Foreign
rit@@
ous@@
Private
Pl@@
trees
alisation
taxes
Nor@@
boat
30@@
7.@@
consultation
politicians
dro@@
uni@@
sold
Tur@@
ching
discovered
5-@@
approval
Democrats
strengthening
handling
radio
ency
1997
Rome
articles
password
Instead
respective
™
196@@
fra@@
lists
felt
refugees
pul@@
represented
nam@@
fication
willing
happens
objects
ization
sec@@
error
dinner
bedrooms
Their
conduct
cycle
195@@
tle
author
Google
representative
Am@@
rejected
Can@@
1-@@
highlight
pos@@
letter
custom@@
л@@
tours
band
Ru@@
impressive
alization
Villa
Best
fruit
automatic
isation
Book
squ@@
noise
char@@
Rule
looks
liber@@
helping
reflect
shi@@
ara
regret
exists
Munich
audio
ya
wealth
ren
ack
ink
CA@@
tal
mutual
ko@@
soft
tain
drugs
constant
post@@
don
ills
pping
gs
Fre@@
museum
RA@@
finding
substances
197@@
onic
IN
Last
proof
Bra@@
recognise
ena
figure
increases
cross-border
spring
9.@@
attitude
chi@@
ishing
cha@@
depends
streets
medi@@
mechanisms
Regulation
creative
cho@@
acting
mel@@
extension
an-@@
wind
dining
leisure
equ@@
confirmed
exclusively
amongst
fantastic
volume
constructive
ky
alized
Station
Do@@
Britain
Trans@@
connections
Over
by@@
outdoor
renewable
hel@@
faced
disaster
suggest
thereby
OR@@
emphasis
pal@@
entertainment
appeal
fre@@
largely
fighting
ences
1,@@
finished
ily
le-@@
determine
Bur@@
Company
resolve
watch
dependent
alist
Get
producing
diseases
lam@@
ai
command
oral
compensation
except
4-@@
emphasise
ll@@
removed
journey
creates
renovated
ah
Frankfurt
Afghanistan
Le
obligation
{
operators
ck
fies
hom@@
ial
As@@
settings
Hotels
helped
bio@@
danger
tives
Japanese
Swedish
Cre@@
Cam@@
Art
tation
bul@@
truth
prove
ici@@
Applause
ins@@
ga
SE@@
naturally
personally
intention
centres
Pr@@
suffering
colour
chain
„
exceptional
tel@@
weather
opposed
Bal@@
Del@@
faster
arrangements
burden
messages
istic
displayed
mental
decorated
offices
ended
mobility
reserve
fraud
block
assist
recognised
perform
At@@
Costa
tan@@
Kar@@
regularly
holding
president
fail
comply
pped
Ladies
heavy
spot
officials
THE
amounts
passengers
happening
mor@@
kes
hit
parents
affairs
Programme
doors
drawing
surroundings
UR@@
equally
Gal@@
reserves
load
ain@@
ID
abroad
Chamber
water@@
hardware
updated
proved
investors
Hol@@
couple
trac@@
Tr@@
criticism
migration
Win@@
Energy
eye
Market
Rom@@
1996
ular
spo@@
FR
ben@@
fee
75
Mc@@
PL
Pat@@
properties
applicable
sol@@
suite
signs
unto
spe@@
died
glad
Control
bel@@
je
tered
friend
ga@@
Time
millions
waters
percent
Foundation
divided
castle
meat
sauna
ong@@
drink
gan@@
edge
walls
whatever
strategies
Paper
Star
obtained
configuration
deals
Question
Pol@@
Environment
blue
massive
two-@@
tho@@
Br@@
balcony
ster@@
license
т@@
protecting
marks
resolved
topic
cable
proud
cold
cent
Croatia
°
Strategy
Yes
Nice
sem@@
latter
Under
conf@@
Euro
east
resolutions
ON
worse
classic
driver
logical
seeing
ny
answers
define
&apos;ve
ticket
leaving
heating
bridge
}
launch
maintained
delegation
discharge
preparation
remaining
treaty
printing
speaker
Institute
opinions
owners
23@@
Ni@@
organizations
involving
focused
tables
library
rely
aging
issued
pieces
ment@@
contributions
involvement
Fin@@
una
eyes
tested
400
3-@@
wing
ought
directives
identify
requirement
mobil@@
grow
roads
depending
MS
organized
lots
stored
ology
realistic
phrase
restrictions
Wil@@
ona
wel@@
vast
definitely
starts
nu@@
Description
8.@@
ki
Perhaps
US@@
cy@@
intend
mandate
assure
aries
tro@@
Whether
profile
returned
itation
See
communications
ye
El
suites
Procedure
low-@@
precise
compatible
facts
mostly
characteristics
Financial
vit@@
seat
NATO
actively
Bulgaria
carbon
exciting
rapporteurs
relaxation
cer@@
transportation
duc@@
west
regulatory
grateful
Safety
ham@@
cosy
в@@
Open
pose
lovely
ID@@
Polish
Dec@@
owner
Square
si
das
frequently
Ti@@
sy@@
raw
prefer
hall
ric@@
Home
lo
presents
invite
Ge@@
repeat
Korea
Mari@@
tickets
joined
IA
familiar
combating
satisfied
facilitate
PE@@
reported
post-@@
interior
confirm
Stu@@
occasion
ately
demanding
valley
debates
drivers
od@@
dge
provider
lie
contracts
absolute
extreme
Sub@@
contacts
residence
hard@@
impression
á
involve
Street
metal
brief
desired
operational
Brazil
IR@@
MEPs
nor@@
oriented
electricity
SP@@
hundreds
stylish
documentation
blood
effectiveness
contrast
wines
Data
don@@
Sil@@
statistics
vacation
my@@
ame
Roma
delighted
ado
150
somewhat
pic@@
high-quality
careful
con
Fu@@
ack@@
conducted
ational
Ministers
ov@@
com
conflicts
submit
inflation
feed
blog
River
Friday
emergency
subsidies
expert
match
2020
Day
Will
father
performed
mil@@
deb@@
DA@@
formed
sum@@
flights
cle@@
Dom@@
liberalisation
Old
noted
wal@@
channels
understood
LA@@
meant
ward
01
ek
afternoon
continent
appointed
hostel
widely
alities
Canada
reject
IF@@
Charter
updates
SMEs
corner
techniques
Gen@@
medium
bal@@
decision-making
ç@@
sia
department
ot
quarter
entrance
Chi@@
ish@@
explore
minority
ster
nights
indicated
accompanied
Palace
welfare
firms
defend
newly
collective
Han@@
vers
awareness
chemical
fitness
ony
peoples
channel
visited
whilst
ain
OL@@
arrive
functional
conver@@
row
plenty
Or
De
MO@@
album
ha
master
Hor@@
EM@@
ongoing
northern
cutting
functioning
s.@@
ly@@
rental
occur
ama
kets
lec@@
windows
John
boo@@
Ap@@
gardens
lit@@
looked
manufacturer
lounge
career
Fran@@
customs
Air
corruption
showing
bottom
exit
irs
yes
Prague
saving
inhabitants
person@@
remote
tourists
rapidly
ements
vol@@
islands
heat
profit
cont@@
visiting
listen
log
western
Pa@@
hear@@
Spa
EN
plays
bound
chen
expansion
farm
personnel
eastern
net@@
tun@@
ensures
universal
SA@@
foundation
involves
declared
owned
White
lift
follows
Pic@@
settlement
min
sight
1st
lasting
resistance
categories
ign@@
Mag@@
Thirdly
assets
Luxembourg
-up
fic@@
ils
EU-@@
frame
directory
forum
Within
pur@@
Special
š@@
ultimately
strict
²
Good
correctly
Pri@@
imp@@
Alliance
Without
tru@@
suppliers
Soviet
parliaments
pollution
ola
Copenhagen
0-@@
generated
dri@@
fashion
Page
ethnic
gg@@
usual
demonstrated
credibility
analy@@
plan@@
copyright
Baltic
recorded
spectacular
component
replaced
sky
professionals
sights
tively
pm
any@@
module
Dr.
hum@@
ation@@
48
transition
oring
awarded
facility
Ju@@
collaboration
stronger
competent
rock
Roman
Belarus
bike
cr@@
passenger
Ser@@
ik@@
Na@@
Cyprus
lab@@
emerging
stream
pension
AL
distributed
TR@@
satisfaction
ING
containing
spoken
addresses
miles
Gar@@
Lam@@
Well
theme
ped
soci@@
solid
sm@@
justified
Arab
ace
appearance
logy
woman
graphic
entr@@
acted
imposed
adults
assume
hol@@
routes
1995
oun@@
corresponding
TH@@
ail@@
aged
rising
spon@@
educational
conditioning
д@@
hn@@
Tip
ISO
Second
tering
terrorist
weekend
scheme
declaration
port@@
flat
housing
ner@@
identified
cash
Hu@@
overcome
transactions
temp@@
respected
providers
maintaining
gold
demonstrate
puts
regarded
sou@@
ata
Z
artist
heritage
dem
Thursday
Sk@@
gy
è@@
ero@@
Given
replace
2011
Pakistan
packaging
slightly
tackle
Besides
Cap@@
hon@@
Hungary
Ara@@
shares
tar@@
recommendation
magnificent
Schengen
sharing
bing
disk
reli@@
ini@@
complicated
mit
Design
tations
Like
ow
luxurious
en-@@
visa
sor@@
partly
mod@@
Vo@@
banking
towns
Is@@
Following
possibly
nation@@
falls
CH@@
Sunday
filled
bilateral
colours
hair
argument
U.S.
ending
bro@@
count
Sen@@
sexual
lock
virtual
sugar
fle@@
earth
mother
drinks
straight
grant
intensive
l-@@
accurate
proven
committees
judicial
Amendments
ads
concluded
sending
tom@@
ong
phones
Hy@@
http
pun@@
cuts
inv@@
electric
exports
ñ@@
ker@@
lessons
tre
all-@@
gender
cru@@
vulnerable
aci@@
VAT
moral
sheet
Ha@@
м@@
suggestions
fol@@
supplies
supplier
trafficking
overview
enhance
ol
San@@
zz@@
Belgium
occasions
minorities
elsewhere
topics
youth
connect
missions
bil@@
Mexico
33
és
nom@@
finish
input
Technology
intellectual
behaviour
enabled
für
Guests
Ul@@
ners
specified
ente
shipping
vari@@
proceed
description
Ph@@
commen@@
Hungarian
deposit
patient
Monetary
selling
determination
deficit
modules
teams
decisive
slow
tra
holds
division
inal
confirmation
trend
sy
savings
Madrid
E-@@
Q
everyday
rich@@
skiing
preparing
val
ye@@
ki@@
Char@@
Bay
em
Sw@@
3D
Situated
Ban@@
functionality
invest
delicious
Israeli
yer
departure
domain
sid@@
proposes
Sha@@
zer
Pact
Pen@@
crimes
with@@
Portuguese
sum
treat
depend
constitution
Sur@@
wonder
Action
milk
PHP
therapy
greatly
Lord
diverse
tea
mix
comparison
hundred
6-@@
Tro@@
Gr@@
ele@@
Uni@@
label
ome@@
Town
gener@@
productivity
legitimate
clubs
apart
subsidiarity
Northern
forests
eld
constitutional
gained
university
reservations
exception
extraordinary
к@@
Bush
desk
ces
concepts
films
low@@
instructions
handle
renowned
secret
weak
My@@
ride
zu
din@@
tran@@
tionary
Mu@@
Who
immigrants
Should
Cha@@
EADS
massage
une
vent@@
•
planet
cleaning
battle
ry@@
Does
lat@@
encies
AB@@
eventually
stabil@@
promised
gallery
ust
Inn
specialist
ining
elled
army
ko
England
25@@
unforgettable
spoke
ref@@
notes
invited
Beach
Ra@@
taxation
10.@@
wards
Bas@@
ea@@
Monday
patent
suffer
ide@@
scene
Funds
arrived
enjoyed
ligh@@
encouraging
lunch
MP@@
prec@@
wear
trips
leaves
trial
IP@@
mas@@
disabled
voluntary
prof@@
0s
well-known
Code
las
examine
anda
drug
generate
AT
cab@@
continuous
receiving
firstly
coun@@
tobacco
citizen
courts
Enterprise
stars
formal
q
ordinary
Congress
Net@@
manager
thousand
ord@@
globalisation
welcomed
interpretation
rein@@
directed
abuse
impose
aria
Egypt
parameters
countryside
p-@@
Americans
TO@@
Cur@@
eding
solely
elling
centuries
Island
rel@@
excessive
saved
Through
arguments
dream
Mac@@
considering
cou@@
prosperity
motor@@
welcomes
pursue
Global
EL
layer
destruction
Bri@@
difficulty
plenary
Wi-Fi
imports
alo@@
upper
ECB
Women
permitted
Santa
necessarily
Having
consent
ums
paying
Hel@@
Press
villages
cast
Structural
turning
missing
succeed
main@@
wrote
Framework
Inte@@
Bre@@
philosophy
ancy
inclusion
flu@@
ney
dry
ished
hardly
Year
tab@@
PDF
ane
cooperate
65
Hamburg
Protection
doub@@
hy@@
import
ping
applying
programming
ser
ales
Obama
festival
1990
#
95
characters
Royal
Church
ari
uring
Shi@@
recognized
CO2
ung@@
ME
ham
lied
mag@@
ee
fans
foot@@
substance
Hi@@
compact
600
sounds
carrying
tely
flows
Islamic
subjects
proposing
award
stages
traditions
Tran@@
unity
politically
aff@@
absence
add@@
ket@@
surely
ante
remarks
poly@@
referendum
34
Nos
ambi@@
PL@@
cells
ani
pers@@
liberal
thermal
homes
Lab@@
a.m.
toward
errors
lands
tennis
combine
suggested
fourth
36
theory
significance
organic
ological
AV@@
Finland
motor
remained
fer
welcoming
р@@
III
fees
Saturday
Black
enterprise
hospitality
maritime
labelling
Air@@
dom@@
Asian
wellness
stein
computers
ap
everybody
killed
Fer@@
centr@@
explained
duties
Es@@
Multi@@
dating
wireless
adapted
conventional
pay@@
amenities
representation
nevertheless
800
supposed
printed
united
ath@@
rare
AS
driven
Barroso
contributed
st-@@
Card
49
indicate
allocated
Desk
ech@@
considerably
transmission
PT
AND
occup@@
pure
negotiating
99
mit@@
periods
suit
Fl@@
cle
drop
prime
erv@@
barriers
Atlantic
ven
liked
attempts
Off@@
lay
rus@@
sle@@
reflects
tem@@
PC@@
sustainability
King
videos
cri@@
info
constitute
resource
eds
publication
counter@@
cancer
Media
Would
farming
refers
designs
reflected
enhanced
usage
boot
consulting
JavaScript
sections
Ger@@
adds
Online
supervision
restricted
Ram@@
Assembly
sig@@
virus
covering
severe
gap
ira
productive
tin@@
minim@@
Pan@@
Sy@@
root
fulfil
School
Bon@@
obliged
hearing
matic
classes
societies
Notes
floors
kan
kernel
mo
non@@
Ki@@
tracks
imagine
harmonisation
Site
ania
appeared
cross
collected
eat
bon@@
sizes
arm@@
tend
eu@@
Systems
int
ert
studio
showed
football
reaching
ows
internationally
destroyed
War@@
reliability
adopting
stocks
va@@
lived
non-smoking
stand@@
Serbia
produces
wider
portfolio
anywhere
ious
ges@@
wave
än@@
dem@@
ita
tree
Earth
Server
dering
none
legally
SS
ste
trends
fairly
Comp@@
sters
ades
37
endorse
iner
enabling
firmly
tele@@
Web@@
Coun@@
individually
decade
supplied
64
servers
forthcoming
arise
concentrate
Have
Express
actors
ues
zation
hin@@
romantic
suffered
spec@@
religion
USB
artistic
realise
Nu@@
Report
Tw@@
adapt
miss
symbol
coordinated
Strasbourg
generations
hiking
processed
acceptance
ulation
24@@
investigation
ordered
amazing
of@@
eve
Christmas
ached
lag@@
iled
guided
Using
Pres@@
ger@@
SO@@
euros
len@@
movements
dark
edition
operates
originally
travelling
IC
fan
Casino
universities
restored
gro@@
dia
Resort
index
managing
ital
meaningfully
fron@@
underground
losses
Festival
undoubtedly
chair
introducing
switch
1994
Australia
pretty
AM@@
termin@@
LO@@
reserved
m2
protocol
worthy
bly
treatments
ite@@
sphere
ros@@
sub-categories
ministers
comple@@
plastic
Consequently
movie
preventing
absor@@
ease
Des@@
parliament
Auditors
deeply
revision
tis
formats
8-@@
joining
abilities
ör@@
th-@@
picturesque
museums
08
lation
rem@@
dy@@
till
nine
learned
contextually
panel
grammatically
decline
equi@@
panoramic
cies
armed
55
briefly
obstacles
origin@@
Further
Fr@@
cel@@
birth
sole
09
everywhere
satisfy
bonus
Sol@@
Agriculture
fore@@
assembly
lia
script
und@@
interpre@@
reaction
tain@@
bers
cam@@
combines
meal
Valley
cm
song
Next
4-star
director
musical
commun@@
Camp@@
checks
ign
med@@
excluded
proceedings
raising
dor@@
promise
elev@@
ely
sand
engines
eurozone
manufacture
play@@
long-@@
beings
gam@@
strengthened
transferred
sively
lobby
specialists
edited
lic
shift
Be
native
utili@@
restore
ella
bright
begins
broad@@
efficiently
ern
sit
hab@@
Agenda
sensible
Food
varied
believes
stuff
appe@@
Don@@
IMF
ador
Stability
ghts
targeted
Geneva
flo@@
federal
las@@
free@@
enh@@
operated
Dra@@
alise
highlights
gri@@
da@@
grade
winning
manual
42
Michael
lig@@
secre@@
normally
Among
stance
View
Em@@
penalty
courage
Boo@@
Die
sion@@
ories
ón
stunning
Fil@@
posed
equivalent
shot
Manager
factory
lar@@
regardless
ene
ession
sil@@
assess
Act
voc@@
sophisticated
collect
grown
IG@@
province
female
fleet
freely
filter
songs
colors
viol@@
Ass@@
funded
ey
disasters
entering
mistake
sta
38
vessels
upgrade
yed
sized
adding
cell
tory
stores
graphics
reputation
Georgia
approve
Hall
AG@@
Putin
dollar
overlooking
three-@@
urgently
Lan@@
sought
threats
freedoms
clicking
OF
poses
thumbnail
07
worst
faith
accident
counter
anniversary
gran@@
и
ck@@
inner
blocks
xes
restructuring
ecological
mouse
pain@@
q@@
-free
deep@@
ound
medicine
&apos;m
meets
TS
student
dated
twice
meals
attached
home@@
atic
kilometres
Fac@@
ect
Executive
ared
39
prospects
ut
hydro@@
turns
surprise
ited
oldest
Transport
Based
Deutsche
tings
Mr.
inten@@
oul@@
Rotary
ened
Golf
safeguard
Set
ult
vin@@
44
convenience
makers
SC@@
hr
relates
checked
bes
Music
Sun@@
clause
itable
Castle
roots
casino
dead
aches
hill
Sam@@
May@@
parallel
execution
Spe@@
Indian
98
Legal
violations
top@@
ura
operator
bathrooms
subsequent
rap@@
Venice
Peter
Ang@@
Commissioners
Balkans
ounds
seats
los@@
tionally
undertaken
push
te-@@
dé@@
developers
non
snow
presenting
fri@@
Socialist
passing
fishermen
tial
ison
boards
scientists
Sar@@
han@@
magazine
integrate
eless
mented
ux
Gre@@
solar
OR
dance
serving
zen
ECU
Lastly
Bro@@
specialized
iler
Comm@@
reconstruction
п@@
Real
recognize
pes
riding
ries
Pas@@
Check
aling
to-@@
estimated
opens
seconds
yard
pressing
ered
Islands
highlighted
belong
cultures
shadow
know-how
Denmark
illing
tries
camp@@
у@@
engaged
neighbouring
executive
harmon@@
newsletter
Paul
relative
candidates
explanation
dignity
dol@@
heading
gel
Nic@@
ron
Eng@@
PO@@
minister
constructed
struggle
Law
Ka@@
Family
teaching
superior
bit@@
faces
visual
emp@@
proportion
The@@
reporting
Sel@@
ration
iss@@
discount
kin@@
recording
ni
swe@@
vers@@
exploitation
de-@@
Java
folder
warning
metro
aside
virtually
budgets
choices
respon@@
capabilities
instantly
ACP
PS
letters
Tour
Open@@
snow@@
hidden
sovereignty
7-@@
Ombudsman
keys
dation
ico
sufficiently
e.@@
Mus@@
regulated
phenomenon
exclusion
taining
exact
Speci@@
Pro
affects
Sim@@
ental
19th
rain
č@@
Ci@@
Customer
revenue
sex
Wor@@
rin@@
Facilities
Nor
boost
posi@@
encouraged
pick
Quality
engage
1992
villa
tac@@
producer
DA
wooden
chan@@
mentation
Rob@@
bom@@
sleep
alists
NGOs
airports
sign@@
aviation
Plan
inspired
amed
heads
widespread
victory
teachers
diplomatic
Belgian
enjoys
ams
fax
alcohol
fts
ette
kes@@
ws
troops
eing
occurred
promises
acknowledge
para
loading
pil@@
igh@@
cool
blu@@
repair
CE@@
nit@@
Education
85
dar@@
iness
boats
Make
feet
astic
clock
certified
strictly
ind@@
Front
nic@@
Cl@@
arri@@
Mas@@
minis@@
attend
conferences
Med@@
bot@@
ased
less@@
TO
BO@@
2nd
Fri@@
Pay@@
xi@@
ano@@
roll
11.@@
Federation
roof
angle
enter@@
tual
10-@@
concert
alize
coherent
gradually
S-@@
rep@@
surprised
indoor
mar
cred@@
projec@@
profits
whereas
acquired
causing
ress
smooth
Danish
Player
succeeded
struc@@
let@@
fly
narrow
dialog
resulted
Ren@@
AP@@
travel@@
User
mb@@
scheduled
contrac@@
Luc@@
premi@@
Dublin
ía
05
quar@@
CAP
expand
utmost
records
teen
radi@@
dil@@
ingredients
pra@@
ther
agents
Box
Project
loaded
Flash
uniform
beer
intends
sor
Vol@@
oning
charm
tex@@
participating
wild
stake
forming
belief
Children
250
shel@@
pillar
Several
soil
MySQL
Support
bert
hun@@
Syria
Fra@@
alle@@
loo@@
\
thy
throw
calm
ble@@
Subject
thi@@
honour
Forum
achievement
Wednesday
camp
hopes
Together
incentives
Pu@@
Otherwise
communicate
avi@@
IB@@
adventure
ultimate
Martin
27@@
clarify
Organisation
crises
pollu@@
hr@@
а
implications
observed
incorporated
permission
aud@@
optimal
bought
favourable
sto@@
boasts
consequence
pel
shuttle
hole
Plaza
41
12.@@
mes
aqu@@
Apartments
ond
harmful
lined
airlines
portal
ED@@
stories
advis@@
06
op
Saint
47
organise
Fle@@
cia
SA
evident
fur@@
superb
Apart
damages
noon
ities
illa
ises
technique
Garden
accidents
Culture
asser@@
essentially
I-@@
shortly
geographical
percentage
stat@@
Tourism
referring
remarkable
Life
dam@@
Plan@@
broken
law@@
Holiday
Hal@@
pris@@
Protocol
hot@@
ands
GB
ables
onal
layout
deserves
Ob@@
negotiation
`@@
alising
Regional
hur@@
Terms
ero
mir@@
height
ora
row@@
High@@
mid@@
sla@@
prison
construc@@
rup@@
pools
Via
On@@
asset
navigation
dispute
intelligent
appropriations
quotas
labor
dan
than@@
cent@@
Ed@@
unnecessary
logic
Cup
purely
BC
approaches
territorial
girls
cop@@
solved
insist
relationships
suited
antly
liable
hills
prosecu@@
е
radical
considers
residential
Vir@@
comm@@
convention
program@@
vary
champ@@
ray
expense
marine
prize
preserve
sible
eller
mid-@@
izing
Ku@@
icon
mere
Team
fla@@
describe
san@@
ly-@@
array
ür@@
organiz@@
fascinating
Hostelsclub
trained
classical
clean@@
gy@@
ordin@@
preferred
predic@@
willingness
Network
Rot@@
honest
hood
Read
SD@@
translated
flav@@
studied
fewer
sorry
Download
Tar@@
eth@@
Skype
ET@@
Mad@@
ort
expanded
ions
Kyoto
prisoners
break@@
exc@@
string
Constitutional
frequency
NL
chapter
paths
02
diving
catch
Hong
tage
alongside
Product
empty
bus@@
resid@@
Mis@@
taxi
chairs
RO
cookies
Ag@@
eliminate
arranged
Three
C.
revolution
ager
theatre
van@@
Kong
full-@@
electrical
Ze@@
isting
enforcement
Budgets
Vice-President
tivity
olive
pet
buses
repe@@
measurement
constitutes
auf
dence
urs
accessories
sample
appointment
GN@@
fix
desirable
ão
USD
inte@@
medicines
lights
associations
Games
employed
sunny
Exchange
Bol@@
itors
seeks
arly
compulsory
bun@@
mouth
dest@@
tag@@
Dor@@
Out@@
clu@@
permit
retain
begun
Gentoo
bre
Poker
ller
seemed
43
unfair
ord
manufactured
ading
Studio
calendar
minor
stick
poorest
schemes
managers
compar@@
arising
Cooperation
adult
assigned
í
campaigns
holder
Award
20th
financed
audience
repeated
Champ@@
Prodi
long@@
ownership
addressing
satisfactory
GNU
Ve@@
itary
mechanical
enjoying
700
lor@@
exposed
dos
pilot
1993
EF@@
suggests
ran
bigger
losing
neighbours
booked
identi@@
lively
composition
bug
travellers
busy
continuously
desktop
spite
shore
constitu@@
gh
46
fi
Muslim
amended
03
wage
legitimacy
mixed
accounting
ure@@
answered
underlying
medieval
ł@@
urgency
ome
sing@@
references
initially
Slovakia
suff@@
120
embar@@
multilateral
practi@@
accordingly
purchased
2,@@
26@@
delete
Mac
vacc@@
A3@@
adhe@@
ideally
completion
collabor@@
timetable
signing
eled
Pra@@
inadequate
tte
collapse
slopes
arti@@
economically
thorough
governing
motorway
considerations
Location
eas@@
autumn
cy
fire@@
openness
ox@@
compete
bay
afford
ians
sof@@
Airbus
destinations
ace@@
width
Director
spectrum
Sec@@
zes
CE
alter@@
reads
poker
sub-@@
0,000
bes@@
Tu@@
ases
sely
dle
custom
believed
journalists
day@@
sit@@
aj@@
parks
accuracy
examination
BR@@
bol@@
maybe
catalogue
repeatedly
lad@@
zo@@
observe
vo
bet
Standard
tism
affordable
splendid
Alps
iring
high@@
secondary
ond@@
branch
civil@@
ope
dramatic
yl@@
ald
tips
til@@
Liber@@
proc@@
NI
ester
cameras
staying
afraid
concentration
dies
.de
rers
ve-@@
convergence
listening
Vis@@
clarity
rever@@
rating
lers
Cuba
sessions
thers
moments
tou@@
characteristic
over-@@
Up
asses
examined
transaction
conciliation
arrange
pin@@
dness
complaints
alled
simultaneously
ship@@
gers
Fo@@
inspection
up-to-date
г@@
Until
publish
horse
releases
Cat@@
specially
intentions
pace
behavior
Staff
logo
Van
abo@@
featuring
execu@@
Met@@
formation
wife
advise
mine
cot@@
viewed
set@@
es-@@
mul@@
transfers
priv@@
ce-@@
Oper@@
Jewish
foundations
tioned
umb@@
belongs
Kon@@
HO@@
hesitate
brands
moder@@
variable
smoking
PRO@@
comparable
falling
ug@@
Moscow
о
eco@@
direc@@
acceler@@
mic
Fundamental
Meeting
extending
rig@@
gift
cancellation
revised
creature
dres@@
SI@@
Cop@@
West@@
forgotten
NO@@
pas@@
ratification
informal
Treaties
edi@@
ela
Consumer
iron
aming
comman@@
1000
orial
stopped
que@@
з@@
commit
quote
Kur@@
wheel
George
David
ethical
gate
icious
Select
lau@@
PR@@
tains
buying
installations
precision
partial
suspended
fifth
escape
appro@@
apparent
certificate
bearing
Video
fav@@
oting
book@@
mini
Industry
viewing
exemp@@
arrangement
Dem@@
Bran@@
anim@@
Authority
focuses
serv@@
devoted
arm
wid@@
Far@@
withdraw
tia
compu@@
Department
short@@
9-@@
forth
nobody
closure
Florence
sty@@
fell
Finnish
schedule
short-term
pain
regis@@
excursions
environmentally
speeches
expenses
oni
downloaded
Mobile
preserved
ft@@
debating
ac
Rel@@
strike
foremost
survey
Reg@@
SS@@
su
certification
relaxed
disc@@
view@@
oppose
feedback
ida
deserve
subscribe
28@@
drives
Budapest
sees
Maria
zero
tolerance
2.0
Up@@
textile
automotive
hypo@@
notified
quantity
Palestinians
red@@
logistics
frag@@
Small
Suite
missed
signals
organize
Ur@@
hof
loans
tropical
portra@@
io
aus@@
chairman
2012
Ty@@
declare
Gl@@
Mand@@
baby
deadline
depth
Main
dimensions
author@@
96
dog
coastal
dependence
pel@@
wei@@
Choose
iling
archive
spi@@
tour@@
2013
fitted
modify
Mit@@
pattern
stic@@
condemn
Catal@@
publishing
AM
earn
ential
Bat@@
modern@@
viable
ired
Cy@@
dial
alternatives
asing
destroy
Morocco
doubts
relief
respects
tragedy
representing
arch@@
Common
Rou@@
stor@@
Str@@
removal
presidential
Ros@@
crew
dian
EX@@
occupation
1991
ED
interactive
sur
favourite
residents
Ke@@
bin@@
empha@@
stops
Kr@@
Intergovernmental
stan@@
renewed
wo
exhibitions
conversion
bility
Section
Je@@
Search
mass@@
met@@
ton@@
Academy
ais
gue
Autom@@
assurance
1989
ski@@
04
DV@@
.org
winner
bat@@
sandy
returns
heav@@
Mel@@
Ministry
Which
neighbourhood
mers
g-@@
centers
ury
marquis
soul
Tom@@
bonds
sul@@
tower
Place
Kal@@
composed
Ol@@
argue
ignore
retail
vir@@
boxes
alike
Power
orientation
kil@@
posts
Zurich
promising
parti@@
EU@@
б@@
shoc@@
wat@@
genuinely
m-@@
use@@
finds
jointly
papers
focusing
consistently
ician
instruc@@
Growth
Adobe
Storage
tin
A-@@
innovations
authors
typically
Salzburg
ility
Ham@@
stayed
precious
chemicals
comprises
integrity
Lim@@
wise
ail
ê@@
propor@@
lin
Ly@@
trouble
Gaza
Mur@@
bran@@
dt
incorpor@@
Las
purchasing
Equ@@
adjustment
broader
smo@@
Power@@
ken@@
beneficial
false
violent
sculp@@
smart
judge
dic
Pacific
ceiling
uncertainty
public@@
subsequently
cep@@
tragic
achievements
harm
nur@@
chat
Civil
cancelled
alia
announce
vic@@
privileged
principal
mistakes
attended
97
quest
steam
sake
refused
dered
credible
Experience
terrible
lovers
ree
tion-@@
Contact
trou@@
Single
trains
agu@@
whenever
approx
recession
s.
esti@@
Cu@@
nar@@
optimis@@
pot
ix
connec@@
affecting
Everything
domin@@
displays
researchers
freight
posted
codecision
specify
Stra@@
machinery
duration
Gran@@
HTML
Obviously
Cologne
publications
healthcare
hence
painting
alis@@
delays
MB
refuse
han
violation
oned
pass@@
premium
stu@@
auto@@
stays
catering
stressed
iter@@
officially
hi
closing
Dal@@
Non-Smoking
unusual
negotiated
cope
tet
authorized
whatsoever
S.@@
observation
cross-@@
electoral
expressly
basically
eries
class@@
ples
Greens
vel
voters
ote
aled
Full
preparations
sailing
cing
ght@@
passion
pensions
Area
occurs
promoted
realize
Chairman
ri
ß@@
deficits
popul@@
selec@@
ranging
concerts
C-@@
whereby
ratio
recall
knew
surveillance
prospect
fications
explicitly
sch
soc@@
measuring
hop@@
Marina
weigh@@
vor@@
son@@
tile
Che@@
EP@@
IV@@
ée
favorite
flying
heated
outs
importantly
valid@@
-to-@@
indicates
new@@
spare
beef
Lis@@
taxpayers
ani@@
transitional
Vil@@
fare
imported
St
postal
slowly
emerged
kel
negotiate
acquisition
ots
Travel
soldiers
indicators
Visit
patterns
tough
sheets
airline
state-of-the-art
MA
Sou@@
ion@@
plane
Digital
essing
visits
Men@@
rub@@
chose
esses
CON@@
ling@@
zy@@
necessity
Fisheries
employers
Comple@@
foun@@
scar@@
Tex@@
Employment
lighting
Pass@@
tened
insufficient
converted
ells
Bl@@
LE
ool
frequent
Similarly
86
stem
bureaucracy
admit
ein@@
Partnership
time@@
AD
Space
Econom@@
arbitrary
App@@
illustra@@
D-@@
SV
generous
diagno@@
identification
Website
dre@@
tell@@
ska
commerce
sam@@
Access
Mul@@
react
moves
spots
dium
newspaper
pair
prestigious
ght
DO@@
Conserv@@
mandatory
patents
Series
thanking
Ky@@
harbour
roc@@
entries
tens
alty
distribu@@
worrying
extra@@
specialities
hn
cial
Additionally
evaluate
photographs
pack
keeps
pression
Bus@@
maps
Go
UC@@
Washington
Cri@@
platforms
dollars
decor@@
dable
replacement
magic
debated
moreover
convert
1.5
pressed
ind
phys@@
olf
certainty
ented
accommodate
Guide
vac@@
atten@@
Personal
sovereign
edit
poli@@
revealed
pon@@
News
Investment
Robert
far@@
jurisdiction
tro
inclusive
arts
treas@@
greenhouse
reflection
temperatures
ul
tration
euro@@
premises
Society
fails
scre@@
wo@@
justify
undertake
expanding
Plus
show@@
peti@@
Everyone
Sony
slo@@
adjust
zy
Conditions
potentially
heavily
tigh@@
sl@@
ware@@
proximity
Canon
designer
invo@@
yang
tery
guaranteeing
simil@@
Olympic
segment
Burma
Internal
stones
ears
deaths
demonstrates
Third
mon
aching
ruling
prevented
kt
sel
distinction
lim@@
worry
Dar@@
tig@@
paradise
vocational
52
academic
ratified
ami
cancel
structured
monuments
Pla@@
oods
Southern
was@@
divi@@
zones
crip@@
cooking
architectural
Gener@@
PH@@
Tan@@
Argentina
Tuesday
degrees
Presidents
populations
ric
occupied
Prin@@
farms
Set@@
terminal
neg@@
fal@@
Scotland
placing
venture
automation
J
Prize
compl@@
coal
workshops
Pack@@
een
Star@@
ax@@
intensi@@
atives
alizing
Opera
ov
18th
warmly
styles
elec@@
Flo@@
tone
workshop
sens@@
Puerto
timely
formul@@
Nonetheless
activated
Los
ood
motions
protest
Sem@@
blame
fuels
Sig@@
codes
unknown
clic@@
tian
threatened
Port
habit@@
ст@@
CR@@
ony@@
movies
Heads
51
heim
Cir@@
tan
Sometimes
visitor
column
Representative
performing
gging
wherever
sibility
by-@@
adv@@
fat
supplementary
login
coverage
Ga@@
drinking
Apartment
spir@@
porting
initiated
clothing
blan@@
vig@@
gin
tailored
assured
copies
allocation
compli@@
receives
specifications
confident
authentic
Tit@@
fallen
choosing
develops
eable
mes@@
half-@@
stret@@
sk
alls
ample
settled
creativity
UT@@
handled
DI@@
quet
rubber
ji@@
headquarters
terrorists
fran@@
silence
Point
gal@@
bag
no-@@
Taiwan
authorised
bac@@
Direc@@
ingen
hospital
ago@@
laser
cip@@
Den@@
leather
External
gradu@@
lesson
damaged
Rap@@
explains
Gold
downloading
relate
Road
Commun@@
Rad@@
care@@
3rd
directions
actor
G-@@
Car
power@@
meantime
â@@
PD@@
toilet
Mess@@
Clearly
parameter
engineers
pays
ek@@
procurement
holes
black@@
itor
Thomas
Maastricht
Master
Edition
breaking
acks
findings
sex@@
porter
rs
acti@@
chief
stal@@
agrees
measured
Bos@@
racing
lowest
coordinate
Loc@@
gains
Joint
bia
claimed
warming
Discover
collec@@
aten
Start
intense
industri@@
Show
describes
editor
executed
patch
illu@@
ater
granting
humanity
contributing
plate
tioning
dorf
split
capit@@
well-being
Quar@@
battery
qualifications
affili@@
avoided
n-@@
withdrawal
ó
X-@@
undermine
AIDS
Water
Lithuania
ith
after@@
ghter
differ
T-@@
ú@@
oph@@
Democratic
ün@@
scenery
caught
anger
ision
ambition
Modern
Ms
Tre@@
lier
literature
edy
silver
noticed
bis@@
integral
dow@@
remo@@
aus
loy@@
holders
Youth
telecommunications
unions
equity
agre@@
civilian
owing
thoroughly
Science
experiencing
gon
Bureau
Currently
PM
lakes
intelligence
raises
pper
govern@@
woo@@
EM
Anonymous
crow@@
ally-@@
photography
Live
fai@@
cat
appreciated
Meanwhile
progres@@
shaped
Hence
surfing
New@@
S.
exposure
Provi@@
dings
Charles
Fried@@
extremis@@
gross
senior
controversial
nen
ques
Elec@@
adjusted
threshold
optical
adap@@
consistency
harmony
conservation
ala
pleas@@
fulfilled
tension
oured
age@@
reduces
Blue
BSE
Europol
agent
capture
biological
challenging
differenti@@
thr@@
poin@@
disappointed
sar@@
Hostel
applicant
ello
aster
ès
intervene
conventions
spar@@
tonnes
fish@@
72
ST
archi@@
Bab@@
Il@@
.00
centrally
Milan
Est@@
birds
IV
Iranian
aux
citizenship
Stockholm
Slovenia
Mem@@
amen@@
pour
AC
Ö@@
Cer@@
rolling
disputes
setup
top-@@
Cli@@
V.
Anti@@
ignored
consult
decent
licence
searching
talked
eu
a.@@
Super@@
Lebanon
mal
signature
watching
automated
seri@@
systematic
endor@@
AN
apparently
wind@@
suggestion
gres@@
SE
bal
EA
emphasised
Deposit
shor@@
substantially
AR
Liberal
kids
lows
downtown
HT@@
flow@@
pin
incentive
handed
nec@@
Under@@
pursued
itch@@
lich
transit
connecting
tening
proce@@
robust
breathtaking
finest
mol@@
thesis
BMW
wars
pharmaceutical
tured
separ@@
prohibited
Tim@@
ación
tric
borne
Golden
sensor
wer@@
doc@@
utilis@@
ites
hosts
partnerships
acked
Pap@@
regulate
·
Mont@@
blind
ishes
conveniently
wages
emission
tool@@
legi@@
supervis@@
kit
Dol@@
spl@@
urg@@
separately
ares
guard
editing
ter-@@
diff@@
å@@
but@@
Bou@@
Fon@@
ы@@
transformation
controlling
perspectives
Her
Europe@@
powered
A.
territories
sentence
Come
upcoming
tow@@
NE@@
passes
Cit@@
Az@@
convince
batt@@
churches
fe
unanimously
hem@@
kg
SP
maxim@@
dict@@
bill
gic
Gran
alarm
Naturally
Communist
Islam
crops
Sie
Pon@@
pho@@
Malta
practically
notably
rela@@
insul@@
environments
Check-@@
eigh@@
skilled
tribute
teacher
gaining
mi
progressive
flowers
TE
surprising
tiz@@
tric@@
SD
artificial
Bir@@
PPE-DE
Kra@@
bach
plain
Electr@@
aces
ey@@
homepage
pling
peak
translations
isolated
54
rose
Mes@@
tiv@@
open-@@
celebrate
bureaucratic
monitored
defining
incredible
Vel@@
survi@@
CS
prob@@
seminars
rational
stadt
characterized
contractual
Heating
hire
circle
ids
spa@@
optional
imposing
24-Hour
respectively
arity
argu@@
ön@@
gem@@
arrest
diver@@
sporting
essence
Could
keen
ein
Hamas
milit@@
garage
zo
doctor
Order
ful@@
rob@@
Wat@@
ler@@
tax@@
Ak@@
supple@@
enlarged
unstable
self
marking
Professional
guides
preliminary
nationals
Institu@@
Vit@@
Elevator
College
Inclu@@
wan@@
About
gur@@
sco@@
lah
Left
ille
Aqu@@
unlikely
partition
ato
Pot@@
iPhone
warding
Land@@
biodiversity
fate
tless
deleted
SU@@
eine
nes
Mot@@
deemed
revi@@
imag@@
fears
flag
Luggage
abund@@
Right
ose
silic@@
ч@@
calculated
ent-@@
akes
mini@@
jour@@
Bio@@
circul@@
counts
economics
pot@@
uph@@
activate
trails
asse
fted
realized
Docu@@
By@@
world-@@
F-@@
bet@@
ound@@
tangible
21st
jo
rows
History
regrettable
mini-@@
seaf@@
Secretary
James
ints
filling
par
thin@@
Out
multimedia
tant
compare
acknowledged
vention
checking
Above
treaties
Bosnia
unch
Ital@@
©
loved
Tyrol
Bil@@
ever@@
gym
restrict
unemployed
defense
foods
tells
ays
coo@@
mirror
colon@@
ford
complexity
Technical
Program
contra@@
Sor@@
nik
sh
simplify
victim
grand
Excellent
Rural
Cathedral
statistical
competences
guidance
elderly
culinary
tto
Auto@@
performances
enting
optimum
finances
wording
emerge
isi@@
mac@@
declarations
Hau@@
rul@@
Budd@@
pione@@
dominant
mem@@
turing
dal
Roc@@
survive
XP
asp@@
SAP
Pub@@
Gulf
inary
score
genetic
strange
ARE
tible
accepts
Oc@@
Indonesia
Rev@@
branches
subsidiary
paintings
maj@@
Bad
Thailand
53
Hon@@
Mail
fair@@
cheaper
conve@@
demographic
tement
Apple
Wo@@
Ps
Labour
FT@@
migrants
56
mining
judgment
Nordic
bread
she@@
dominated
unfortunate
themes
Yugoslavia
bone
nonetheless
cheese
ambience
doctors
exha@@
derived
pursuant
CHF
thoughts
Simply
Beijing
Pin@@
lacking
pt
SQL
graphy
reverse
Palestine
elle
receipt
stood
sustained
dat@@
walks
air-conditioned
drafting
resp@@
tionality
Orig@@
grand@@
ced
configure
ROM
P-@@
rowing
servic@@
twin
oms
quantities
interview
monthly
coordin@@
acquire
Som@@
shortcomings
liness
dumping
bags
hl@@
winners
ty-@@
lap@@
lessly
Ther@@
exceed
recycling
mur@@
&apos;d
Tour@@
AP
cons@@
roll@@
bird
GU@@
observ@@
discre@@
grew
eff@@
onia
fting
Main@@
feels
Iraqi
kom@@
piano
unlike
wil@@
Over@@
nal
discipline
Training
initi@@
ensured
continually
tube
responses
Zimbabwe
Eco@@
NT
exchanges
controller
clothes
preferences
lish@@
transatlantic
breaks
the-@@
tious
inquiry
audi@@
stro
fon@@
Friendly
uck
exploring
founding
dist@@
rence
acqu@@
Bern@@
attract
fought
2.5
cles
celebrated
bo
estimates
aking
stro@@
LA
dep@@
interinstitutional
confusion
apo@@
badly
justi@@
gor@@
Bet@@
Medi@@
fat@@
hoped
lens
Wall
secured
specialised
tz
ough
unlimited
CF@@
Shop
è
iny
Vietnam
Lad@@
Playa
CP
Centr@@
ink@@
Vista
roughly
married
weekly
xed
cit@@
nesses
condemned
Jan@@
Peace
tress
OK
ques@@
telling
male
presentations
regimes
mailing
Ltd
ros
synchron@@
separated
camps
Macedonia
large-scale
sequ@@
delicate
twenty
thro@@
ris
breach
invitation
SL
analyses
drafted
vis
compatibility
tape
visi@@
Py@@
brain
circulation
allies
Enter@@
exceptions
congratulations
alling
concentrated
Libya
cell@@
continental
decreas@@
landscapes
allo@@
66
pregn@@
indication
Phot@@
Add
embedded
thir@@
imperi@@
ules
sin@@
novel
reductions
59
salt
od
Eff@@
ade@@
Contin@@
plugin
strive
teenth
Mun@@
bou@@
installing
evol@@
departments
ok
unprecedented
Stuttgart
survival
prominent
consequently
characterised
distor@@
allow@@
Tal@@
hop
fundament@@
Syn@@
esp@@
AU@@
gli@@
outset
priva@@
ull
3-star
interim
taught
5th
gan
announcement
H-0@@
vegetables
chocolate
68
electro@@
yellow
Co
extr@@
roof@@
dur@@
League
profiles
Empire
invested
implies
follow-up
crossing
incorporate
platz
labels
differently
refined
golden
banned
vicinity
trademarks
71
underline
inations
shareholders
emo@@
1980
Close
B-@@
flash
humans
combining
tip
ple
amend
alogue
asy@@
Alpine
acknowled@@
ols
permanently
ère
horizontal
sym@@
races
publicly
hen@@
ensu@@
guar@@
forcing
roo@@
wit@@
cement
safely
vable
admi@@
Sudan
racism
deser@@
prov@@
gia
Organ@@
gies
listened
assumed
conce@@
announ@@
Got@@
backed
het
boarding
radiation
Parliamentary
40@@
Tibet
girl
abandoned
observers
Wel@@
distur@@
kno@@
identical
revenues
evolution
testi@@
weak@@
tary
handic@@
Organization
Tem@@
stoc@@
gastronom@@
laboratory
human@@
California
Line
aya
sightseeing
Eur@@
districts
ungen
Ten@@
Suites
solving
sn@@
contributes
я
Rem@@
vre
venue
schol@@
accepting
Change
Rather
sharp
business@@
oper@@
shoes
reinforce
enthusiasm
Norway
HD
resorts
notion
databases
forums
Tun@@
ambitions
template
discovery
tranqu@@
kon@@
participated
governed
peace@@
ho
motivated
bathing
gio
defects
there@@
Nero
expec@@
undertakings
SI
LU@@
Cab@@
polis
li
spiritual
diplom@@
resumed
eling
stic
caf@@
ré@@
grants
bid
Danube
roun@@
She@@
competitors
STE@@
cycling
sson
investigate
ography
globalization
rid
Work
Kor@@
mad@@
mir
cooling
Sc@@
bench@@
sear@@
correc@@
magnetic
icians
fiable
failing
Develop@@
returning
fel@@
gol@@
quarters
alliance
ium
interaction
bak@@
simplification
striking
clearer
ave
oes
penalties
Sol
dive
eating
dru@@
58
lio
AK@@
apping
designers
mounted
ops
Fif@@
succ@@
transformed
tec@@
gear
Fair
awa@@
enemy
refurbished
3,@@
advoc@@
les@@
Big
employee
tural
backs
small@@
torture
SC
Region
ando
recover
lifestyle
minds
arrested
modes
resistant
nowadays
HD@@
ss
techn@@
Know@@
Travel@@
rivers
continuation
currencies
erial
aller@@
ually
confron@@
ousness
household
commonly
backing
unification
haz@@
sement
gn@@
zu@@
Albania
iro
EMU
capability
filters
emer@@
accompl@@
requiring
expressing
Climate
entally
warranty
tak@@
oder
Client
profound
tot@@
sand@@
fault
plac@@
securities
menus
revis@@
SW@@
Aus@@
engagement
Gor@@
HO
haus
eption
fresh@@
authentic@@
gaming
tas@@
el-@@
Allow
autonomy
ication
ž@@
buil@@
pursuing
bel
Budgetary
infringement
interfaces
Bay@@
Budget
4th
newspapers
16th
observations
Written
abe@@
dogs
kilometers
Products
referen@@
Four
GT@@
Fun@@
eth
belonging
fs
Len@@
extends
moderate
heal@@
circuit
key@@
change@@
ocean
finishing
pron@@
dreams
tight
goo@@
nel
grou@@
ен@@
ben
tab
eligible
olo
suddenly
conjunction
dam
graphical
ch-@@
denied
earned
-F@@
boundaries
Declaration
transmitted
Def@@
Residence
tournament
Mark
excess
tiny
isolation
kam@@
modest
neutral
iss
rejection
writer
Moldova
comforts
fers
feren@@
Rol@@
hide
92
amp
demonstration
Socialists
sburg
art@@
scenario
mas
bears
railways
independently
Imag@@
tent
translate
daughter
uns
panels
Wireless
influenced
geo@@
Photo@@
Tower
DC
demanded
adaptation
Test
semi-@@
seminar
ET
fires
Unlike
Gam@@
ier
charter
invites
cro@@
accountability
bases
infec@@
Ama@@
appreciation
consolidation
tackling
bic
Part
fen
four-@@
stakeholders
tech
Between
ati
await
encounter
elegance
complimentary
trademark
enger
hosting
transl@@
lian
fan@@
legisl@@
arian
alive
printer
essed
recep@@
rats
wake
accused
TV@@
nicht
commission
globally
Process
contradic@@
qualities
surplus
removing
aring
processor
capacities
hes
kill
placement
minimal
blocked
88
deleg@@
illed
undertaking
WC
Certi@@
57
reconc@@
ype
sten
founder
electronics
ouse
partially
inequality
Andre@@
Tunisia
endeav@@
rescue
quota
Cel@@
ION@@
aded
inst@@
band@@
100@@
murder
ele
awards
gathered
permits
query
LAN
explanations
tons
evil
pets
Bed
MP3
oma
jects
psycho@@
fest
notification
tag
ula
Sun
touched
ute
Millennium
lity
Ges@@
ik
conten@@
Stre@@
ci
CEO
reiterate
Nav@@
sweet
stimulate
oth
ile@@
vely
Val
eded
ticul@@
aire
promotes
distinguished
booth
fr@@
afterwards
defending
speaks
assessments
Natural
realised
District
cultiv@@
Les
dangers
countless
ested
subscription
ature
900
f-@@
Cris@@
tribu@@
inspiration
Cro@@
arians
ext@@
repa@@
credited
Play@@
й
tar
delivering
Kun@@
ji
derog@@
Acc@@
packed
part-session
anners
utility
poss@@
bath@@
cht
customized
15th
sty
objec@@
opponents
adi@@
bration
UNESCO
thin
climbing
Meg@@
Working
Much
Sin@@
one@@
collections
restoration
Manu@@
fits
MB@@
excellence
nat@@
distributors
reaches
dges
investing
lion
gement
sman
devis@@
Language
calculation
washing
Casa
ounded
Wall@@
myst@@
Trek
bands
conscious
Hand@@
chestra
Being
por
libraries
histor@@
lear@@
Wh@@
meter
liquid
deny
damaging
pact
uma
complement
Lou@@
ра@@
delivers
authorisation
year-old
politan
trail
Especially
tail@@
rank
Nikon
carrier
linguistic
Chief
hne
TP
Corporate
luggage
prints
indispensable
Regarding
plates
dynam@@
rest@@
recogni@@
gical
slau@@
right-@@
dual
ts@@
Ocean
reviewed
mid
veness
olu@@
dged
Bul@@
Annual
formula
sad
delayed
summary
camping
KDE
spell
itting
waves
consisting
respecting
Partner
della
eration
on-site
stroll
FOR
yi@@
swit@@
Spring
enders
discrimin@@
exploit
won@@
Heritage
CD@@
adequately
reinforced
practic@@
är@@
obtaining
Lau@@
Explorer
67
mig@@
newest
Wer@@
inger
Nature
deeper
preventive
sett@@
younger
crystal
sincerely
inevitable
detec@@
Warcraft
wire
Bad@@
communic@@
loads
luck
ori
talent
sim@@
Rio
pro-@@
A.@@
constraints
detection
tained
scenes
supervisory
Bang@@
seekers
Ev@@
usted
amin
alistic
Arts
ups
Cold
supplement
decentr@@
part@@
clarification
first-@@
prud@@
vice
itter
fü@@
alpine
Wikitravel
cros@@
concludes
Andalu@@
presid@@
influ@@
titles
sis
amb@@
og@@
Muslims
Rus@@
Gir@@
Supervisory
indirect
well@@
seaside
struck
Industrial
dust
hectares
visions
consulted
esc@@
endless
fam@@
stringent
in-depth
entity
Regis@@
consist
vil@@
theast
Neu@@
ranges
co-operation
gged
belt
investigations
vals
decoration
beat
ria
z-@@
arriving
selecting
hazardous
gar
justification
unanimous
Black@@
ore@@
vineyards
Radio
sus
Library
insight
render
Defence
Gallery
B5-0@@
sors
gases
Bridge
GA
distribute
hat
NEW
tracking
17th
Pack
real@@
Nothing
extrac@@
simul@@
Mid@@
ep
Dy@@
matches
admission
glob@@
scep@@
explicit
reader
tram
Privacy
mail@@
shooting
tos
SM@@
witness
reproduction
fruits
80@@
essions
summar@@
Dresden
check-in
cinema
asting
ook
dictatorship
feelings
ight
Post@@
woods
fic
visu@@
carries
var
sav@@
Dim@@
highway
configured
oque
carte
rhy@@
dit
IM
.net
tu
mani@@
nings
villas
tensions
Top
accommodations
CN@@
contest
argued
Foun@@
fabric
coherence
cali@@
bloo@@
abstained
Communication
interpreted
mines
sport@@
enrich@@
cycles
annually
wedding
Firefox
Depending
auch
cache
joy
Fam@@
enjoyable
ington
ruled
coalition
Ken@@
plug@@
killing
dition
82
Christians
mineral
grave
craft
comb@@
condi@@
Vill@@
time-@@
mixture
shots
aps
QU@@
single-@@
disman@@
oo
Finance
asks
layers
sibly
polic@@
var@@
Ds
prop@@
high-speed
Canc@@
mits
instability
desc@@
officers
vine
Professor
healing
beautifully
accumul@@
ate-@@
hyper@@
terror
FA@@
Dre@@
horses
Look
Content
eta
fif@@
Estonia
aker
vent
besides
rarely
rot@@
Cru@@
tremendous
inos
divide
pac@@
somewhere
complic@@
palace
colonial
adver@@
eland
offset
workforce
standardis@@
furn@@
take@@
notic@@
pride
Edinburgh
expe@@
musicians
limitations
knowing
numer@@
Plat@@
vacuum
dress
pack@@
Unless
USS
struction
breeding
hibit
valu@@
bian
incident
oration
Mass@@
exceptionally
acker
imperative
designated
night@@
ali
hed
cost-@@
stimul@@
500@@
List
bicycle
outlined
syste@@
unities
Sum@@
Some@@
adjustments
Village
tisation
separation
ston
overnight
prevents
deri@@
sound@@
zer@@
Das
Korean
Dev@@
Caribbean
teach
Nov@@
chances
attraction
Saf@@
verse
s.com
profitable
oud
lifts
weapon
Double
onian
upload
Later
lawyers
beside
audit
Kle@@
buttons
TA
pas
symbols
terraces
adminis@@
toler@@
shock
existed
wra@@
kings
regul@@
duction
63
tec
mountain@@
legendary
AF@@
Pop@@
Comb@@
hopefully
senti@@
blo@@
logically
fifteen

Franc@@
eria
D.
roles
five-@@
officer
GE
atively
62
COM
maintains
Foot@@
ashes
aving
­
Adriatic
Country
towels
CDs
nis@@
counterfe@@
fundamentally
conviction
disagree
Kin@@
ø@@
silent
retri@@
stag@@
GP
or-@@
samples
floo@@
Citizens
attrac@@
advances
UR
Mallorca
hil@@
prefer@@
rog@@
Sahar@@
inevitably
gically
brother
simplified
jud@@
free-@@
fold
aluminium
readers
dging
Hil@@
93
pa
Singapore
entrepreneurs
Jews
Neither
nearest
tization
decrease
arily
furnishings
Alexander
Basel
Tel@@
quo@@
whe@@
invoice
surfaces
acking
Vic@@
Mountain
logs
UL@@
Head
insert
licensed
ed-@@
dun@@
serial
restra@@
uck@@
refugee
vity
hunger
character@@
ance@@
comfortably
sac@@
downloads
entities
Micro@@
itz@@
Anyone
suspension
pes@@
anti
pap@@
License
dramatically
asi@@
donors
9th
keyboard
bb@@
openly
instant
ко@@
Saddam
slow@@
acquis
incorrect
inde@@
twelve
sofa
slu@@
Sty@@
Cot@@
execute
cus@@
featured
globe
boy
and-@@
Net
Though
validity
surgery
elite
ffs
advocate
advised
Allah
entrepreneur@@
Reserve
cher@@
locally
Mountains
tail
static
rad@@
bon
rounded
reconciliation
kar@@
shell
clinical
coinci@@
Cho@@
Nokia
uxe
Sup@@
Samsung
Joseph
giant
attach
HIV
skill
rests
mess@@
vibrant
Again
reveal
Saudi
variables
may@@
perio@@
bud@@
Chechnya
cin@@
ř@@
reactions
XML
marriage
defeat
Green@@
distant
requ@@
thm
án
Recently
ро@@
mount
pig@@
technically
ax
Pun@@
EB@@
bru@@
fir@@
Coast
iles
ferry
Piazza
conditional
RSS
enco@@
Al
Free@@
criminals
voices
jk
0.00
GPS
universe
ín
ie@@
ás
dom
iner@@
PSE
но@@
Lux@@
double-@@
cargo
subscri@@
retirement
Ah@@
sanc@@
Consid@@
albeit
Fal@@
specul@@
avoiding
conduc@@
Sul@@
Want
incomes
ento
Engineering
Bec@@
democracies
77
arises
ideological
proliferation
ech
yield
compan@@
fab@@
ema
tica
snacks
lining
Bru@@
aggressive
Ann@@
certificates
legis@@
fit@@
prin@@
nis
Arti@@
Administration
at-@@
69
linking
chro@@
Bug@@
tting
socially
Dat@@
gration
annes
carriers
apped
thor@@
acies
Ü@@
terly
Shar@@
maker
FOR@@
navig@@
Ober@@
capitalism
Hun@@
chamber
£
Siemens
Bour@@
Easy
commands
LCD
bad@@
Upon
terial
ryp@@
Riviera
Oli@@
Š@@
sten@@
hairdryer
bugs
herself
61
systematically
terr@@
impetus
light@@
Dam@@
tein
24-hour
Sport
wai@@
Learn
Don
mill@@
pedestrian
gang
nutri@@
chi
rel
subjected
encomp@@
Card@@
ground@@
improves
twenty-@@
anism
exquisite
ferti@@
symbolic
harmonised
HU
exclude
Ay@@
inform@@
corporations
Gol@@
sham@@
threatening
Save
IX
convincing
developer
IR
complaint
Doha
ignor@@
viation
turn@@
Leipzig
integrating
tico
verify
protective
aliz@@
aer@@
ceremony
couples
lying
painted
ij@@
sensitivity
Bis@@
tled
headed
pine
Hen@@
Looking
abuses
PA
vou@@
dispu@@
stimulus
tch
350
sho@@
Nigeria
canc@@
scrutiny
protests
disciplinary
hl
Geor@@
scan@@
thri@@
accessed
costly
Mol@@
ph
supporters
rad
Innovation
94
Helsinki
Richard
Rac@@
cid@@
sich
tually
Palma
Young
assessed
excuse
fru@@
dimin@@
Bus
Solidarity
sional
compromises
intergovernmental
feder@@
ords
PE
Il
vi
lip
Enter
gather
nightlife
judges
correspon@@
diam@@
divisions
inter-@@
container
Nep@@
cream
ordering
sincere
eness
Cultural
ann
Fax
rency
exam@@
Romanian
html
Simp@@
demo@@
optimized
personality
halt
altitude
werden
indigenous
congratulating
safer
err@@
worried
tane@@
hunting
rated
cotton
metro@@
len
grams
cigare@@
PAR@@
isc@@
mean@@
ever-@@
Capital
amending
escal@@
iser
margin
distinct
communist
abolition
91
archy
Hz
eda
cool@@
refres@@
gradual
Chile
his@@
IGC
Phil@@
impe@@
procedural
doesn
Fel@@
wash@@
89
NOT
Wolf@@
event@@
gon@@
admitted
civilians
bust@@
criterion
inviting
honest@@
smallest
Conven@@
batteries
pillars
1990s
Mic@@
Light
itz
Tech@@
check@@
glu@@
perception
adverse
Brun@@
coins
bab@@
Back@@
ense
intimate
Wellness
CA
emble
attempted
fulness
rown
furthermore
auer
galleries
hen
baggage
eci@@
dio@@
coach
volati@@
meaningful
reasonably
pushed
Exhibition
Cra@@
documented
Summer
absurd
moon
-and-@@
suc@@
Ukrainian
istan
tonight
Intel@@
Pil@@
rupt
far-reaching
preference
-European
vessel
Fortunately
of-@@
wa
disco@@
genetically
max
medic@@
discretion
ests
ret@@
Solutions
interference
Statute
Spi@@
ý
journ@@
Fast
perceived
Ide@@
Exper@@
dans
73
78
Sierra
moderni@@
apar@@
cathedral
Update
tasty
protects
vie@@
60@@
repression
econ@@
paint
analyse
laimed
prompt
innocent
ungs@@
TER
DP
Valencia
pricing
disappear
worker
workplace
Ker@@
fasc@@
6th
Ven@@
tz@@
correction
calcul@@
ht
Govern@@
scripts
disastrous
consultations
immense
vels
consolidated
Poli@@
Call
studying
revolutionary
appearing
Lat@@
aven@@
prerequisite
grow@@
Corporation
DR@@
resolving
restrictive
wonder@@
quick@@
300@@
austerity
cross@@
obstacle
burning
smen
Inc
outer
commerci@@
tract
baths
ava
Lag@@
bble
inn
sends
hier@@
inland
compiled
lev@@
spam
wishing
elds
grid
deployment
locked
Alban@@
enhancing
Building
adly
missible
painful
veter@@
Game
bis
alter
Below
origins
tranquil
reciproc@@
pointing
sympathy
jet
num@@
economical
Captain
dryer
Latvia
introduces
erie
unanimity
iger
formally
Jerusalem
Times
ounding
tops
vertical
Jesus
pipeline
Jud@@
thinks
wisdom
Help
Fol@@
foster
counting
mood
refreshing
queries
manipul@@
URL
bow@@
rigorous
modular
popularity
attribu@@
Phili@@
Additional
Son@@
Alex@@
ght-@@
rear
portable
Whatever
sequence
accommo@@
ache
overwhelming
Petitions
74
Sales
vic
pull
road@@
Along
determining
DS
manually
illumin@@
Maur@@
Metro
jec@@
Account
king@@
emotional
noble
ener@@
exotic
classified
Holy
boom
adjacent
parad@@
patri@@
listing
guest@@
abandon
ruption
proves
textiles
anyway
coating
Version
arium
Chancellor
atur@@
vities
profession
deck
hosti@@
mus
guitar
publish@@
theoretical
bikes
advisory
productions
Blair
broadcast
metals
Bulgarian
in-house
distinctive
ez
pene@@
unc@@
Wikicars
circum@@
chal@@
securing
Um@@
Kla@@
vigil@@
iPod
Peter@@
praise
Newspapers
buyer
secondly
endeavour
memories
Islam@@
Stein@@
Exp@@
exploited
generating
ires
moul@@
,00
ring@@
pending
eter
accompanying
Against
Ear@@
degra@@
exhib@@
Vie@@
inces
2015
courtyard
ety
gla@@
nia
wis@@
deadlines
confirms
SK
forma@@
ageing
literally
proportionate
cer
susp@@
investig@@
Blo@@
fin
CD-@@
1970
lending
ounced
evenings
depend@@
voltage
rice
measurements
monopoly
preservation
Fab@@
endorsed
crus@@
examining
envisaged
strikes
cript
istant
hearts
evaluated
definitions
loan
Worl@@
Any@@
credits
Users
Dr@@
Democracy
SY@@
76
Armen@@
ticism
counted
orous
pushing
Consul@@
tative
Large
mun@@
dairy
Inf@@
transported
congress
sey
depic@@
Medical
indications
aton
visas
Anti-@@
cabin
ô@@
installer
Regul@@
deciding
suits
fix@@
Land
sole@@
appar@@
Railway
aga
ef
Sac@@
scienti@@
Local
medicinal
yo@@
sums
attempting
detect
volumes
exce@@
án@@
thwest
ometer
set-@@
Func@@
OECD
problematic
Pur@@
witnessed
visibility
indirectly
drew
gel@@
Questions
Marketing
oasis
master@@
legacy
itted
elson
bottle
Criminal
Nobel
viruses
gest@@
estimate
panorama
shorter
formerly
routine
gambling
lays
embry@@
underes@@
delegations
algori@@
rix
Christ
unified
timi@@
Forest
BM@@
ashed
Lar@@
birthday
distinguish
inci@@
wholes@@
bec@@
brea@@
lifting
wheels
Still
opera
Whilst
tling
worlds
Lounge
german
Max
fitting
micro-@@
aco
fragile
fabulous
.The
admire
plication
Dri@@
chip
courte@@
gent@@
tari@@
Ori@@
reluc@@
illness
Haiti
Ce@@
reti@@
mp
ror
E.@@
duplic@@
train@@
wanting
council
aiming
fed
energies
guilty
family-run
statute
Thai
Political
grey
Galileo
Fore@@
locks
laying
short-@@
Image
households
frames
door@@
po
feasible
classification
infrastructures
ior
wished
promp@@
thick
counter-@@
super
Tarifa
implic@@
Der
lla
encourages
81
enters
iller
institu@@
epide@@
Drive
Non-@@
Likewise
interventions
180
complementary
esh
Disabled
Montenegro
Fa@@
scra@@
Film
note@@
portion
erup@@
scop@@
brilliant
iti
SDL
SLR
Indi@@
municipality
Incre@@
Environmental
Play
settle
isters
Dun@@
deplo@@
cattle
cylin@@
insu@@
ppy
ects
DR
Warsaw
sacri@@
regener@@
sorts
missi@@
Age
enza
eline
compens@@
FI
enses
nt
modifications
farm@@
bookings
erec@@
7th
bi
coastline
dioxide
itarian
prote@@
Emp@@
modification
sleeping
spreading
limiting
Freedom
Salz@@
backup
individu@@
inum
audiovisual
syner@@
lus@@
responding
on-line
tol@@
harder
ville
purchases
ruins
iliation
stainless
tera
Bö@@
ag
chart
Army
emphasize
Airlines
Word@@
anymore
pav@@
dropped
11@@
Advanced
stipul@@
Frank@@
confidential
Arena
Porto
Tel
fia
Revolution
south-@@
trendy
diet
immer@@
non-governmental
Louis
mentary
tted
confi@@
minibar
demonstrations
responded
reser@@
conc@@
mathema@@
gas@@
tendency
FC
10th
broadcasting
hip
forestry
gry
Bot@@
agr@@
studios
mild
Round
detected
ao
Kaz@@
tied
smoke
auction
Theatre
Saint-@@
87
remedy
GM@@
defines
aver@@
Four@@
SL@@
dei
scand@@
retro@@
reimbur@@
affir@@
oming
fastest
dealer
zia
Catholic
temporarily
Tech
slide
Clo@@
impro@@
singer
inated
Colum@@
migrant
agen
landing
cup
tarian
Key@@
catalog
etc.
Colombia
six@@
trials
scru@@
closest
Reform
autonomous
tunnel
OM@@
dev@@
privileges
Congo
ato@@
Zealand
draws
Dolomites
buffer
punishment
Offic@@
completing
1980s
need@@
retained
hec@@
marke@@
plore
î@@
identifying
organis@@
EG@@
surf
provo@@
teau
educ@@
recru@@
amoun@@
Marco
solo
Post
year@@
ity-@@
traditionally
addi@@
mortg@@
wed
exacerb@@
earthquake
PER@@
decor
diplomacy
diagnosis
streaming
boys
toxic
memb@@
immunity
ancing
secu@@
ister
noisy
LIN@@
unilateral
hair@@
OLAF
comprehensible
autom@@
Moz@@
swee@@
kin
it-@@
sind
110
broadly
boutique
Kirk
photo@@
fusion
Kir@@
vous
este
configur@@
renewal
knowledge@@
mounting
merchan@@
donor
Quite
understandable
tv
evo
tank
1988
chers
spac@@
sz@@
Germans
employ
posting
tina
ward@@
Ful@@
enforce
stan
fulfil@@
line-@@
Scandin@@
anca
valued
confidentiality
perf@@
aston@@
-of-@@
varying
rival
Man
random
.com.
ami@@
prescri@@
fulfilling
Rental
liquidity
Gay
anticipated
arena
Algeria
frustra@@
conqu@@
protot@@
sche
organ
folk
esta
tariff
alogues
segments
unt
20-@@
vigor@@
eting
pop
architect
Terrace
Kre@@
pro
Maybe
debts
osity
hosted
quoted
friend@@
off-@@
real-time
disabilities
Archi@@
incidents
yers
End
timing
tie
ATION
automobile
Soc@@
ingu@@
safeguarding
persu@@
screen@@
stre@@
psychological
ump
Vor@@
ill-@@
Gas@@
draw@@
commodity
Stan@@
prev@@
Almost
posing
vulnerability
teen@@
Sym@@
porters
ranks
Jon@@
paragraphs
injection
Fed
Plu@@
Credit
Watch
positioned
accessibility
lar
cooperative
impressed
HP
Try
them@@
TM
plot
commend
Mount
Sho@@
acu@@
Zi@@
personalized
believ@@
precautionary
barrier
Equi@@
mails
rhetoric
institute
Certainly
keep@@
Ari@@
construct
built-in
protectionism
Cohesion
regre@@
Sax@@
ratify
rum@@
mad
sensors
modernisation
RI@@
inspections
Force
NET
gentle
springs
avian
ideology
resear@@
lik@@
priced
Börse
chen@@
weakness
linen
stly
stretch
earnings
13th
vy
inser@@
imbalances
phy@@
Anim@@
üh@@
я@@
Fir@@
rounds
captured
disc
Mob@@
passport
Has
dents
indic@@
tissue
IBM
organs
festivals
macroeconomic
Athens
dish
weaknesses
ika
rently
Grou@@
altar
peri@@
uniqu@@
indul@@
invasion
zi
Gro@@
matching
marble
Sav@@
det
83
LED
Future
conditioned
lowing
intent
vege@@
conducting
definite
refriger@@
Michel
Chris@@
Medic@@
you@@
Relax
withdrawn
Merc@@
reward
Canary
ranking
assessing
Croatian
tta
diameter
rat@@
Source
wearing
Cross
Ref
ć
Class
organising
efs
Stand@@
magazines
rati@@
resi@@
bey
Düsseldorf
Did
BI@@
1,000
symp@@
в
bra
rocks
jac@@
solarium
lob@@
kid@@
Hard@@
anno@@
aster@@
profession@@
diesel
descriptions
networking
Silver@@
14th
pressures
stream@@
cure
safeguards
teria
otal
asc@@
intern@@
eves
continuity
RI
130
84
Instruments
owed
se-@@
refusal
bles
ilt
Cô@@
Price
Ashton
deliveries
attacked
enor@@
asy
Olympus
Dou@@
virtu@@
infection
detention
inch
aly@@
defici@@
§
Flor@@
grain
Diam@@
initiate
MS@@
experiment
Relations
charging
disappeared
stating
fortable
collecting
teeth
Deli@@
ret
slight
ION
favor
Schulz
af
celebration
toys
updating
economists
gathering
educated
FREE
owski
wins
episode
quiry
decom@@
Fron@@
Learning
Russians
asts
ström
news@@
pump
successes
LT
scrat@@
conservative
BA@@
recognises
clauses
administrator
M.
Coo@@
nov@@
attitudes
perfec@@
vement
trace
qualification
Gri@@
cils
tique
Work@@
halls
Beau@@
archives
topical
imagination
convic@@
stere@@
corrid@@
Shu@@
aggreg@@
inappropriate
ecommerce
ě@@
neo-@@
SH@@
figh@@
fier
discipl@@
experiments
Hosp@@
199@@
mill
stering
midst
designing
inging
gut
minded
File
competitions
parent
infring@@
fully-@@
turnover
CL@@
elines
3.5
incredibly
activists
eping
ancement
organ@@
distances
estic
CC
Naz@@
resist
Top@@
concessions
accompany
Technologies
organisms
pen
Ot@@
ées
alt
screens
shipment
wood@@
Ferr@@
Sab@@
Yesterday
tus
cla@@
Berlin@@
bei
isol@@
-made
enemies
objections
antique
trans-European
Steph@@
recreation
limitation
umbre@@
alit@@
launching
buff@@
shortage
consultants
Lom@@
bour@@
abil@@
seam@@
blocking
eful
cham@@
bold
seas
ulty
versatile
tanks
ership
irrespective
attentive
poorer
Around
sump@@
aggres@@
alum@@
formity
Chem@@
speeds
Ski
encryption
DE@@
brutal
accomplished
floods
Resid@@
settlements
eggs
donation
chips
avec
multinational
Ein@@
here@@
escap@@
manu@@
Mar
Slovak
lations
ultra-@@
Prices
sehr
unk
encountered
relevance
fossil
drag
Aff@@
retention
consolidate
attracted
nutrition
municipal
stairs
perpe@@
eliminated
momentum
therap@@
Tuscany
gourmet
zoom
nier
tung
plas@@
outline
Guar@@
Sports
steep
foodstuffs
cs
vegetable
eliminating
Kom@@
scan
dimensional
hoping
x-@@
photographer
BS
density
thereof
help@@
ан@@
guil@@
Mün@@
question@@
burn
ôtel
15-@@
convey
fabrics
transform
å
crash
KA
ı@@
graph@@
predictable
Particul@@
attending
establishments
uro@@
Bes@@
forever
OF@@
Jes@@
ku
thirds
concep@@
statutory
Nowadays
400@@
ambo@@
hospitals
wet
i-@@
CAD
deterior@@
Canadian
Herzegovina
denti@@
discounts
eradic@@
chains
variations
preserving
standardi@@
verified
best@@
Get@@
Type
accoun@@
compres@@
enberg
KG
att
positively
kl@@
uch
yn@@
void
thrown
Cin@@
varieties
ican
irregularities
B.
tiers
rises
atom@@
instru@@
Republic@@
broadband
Tube
Hague
shed
second-@@
obli@@
Iron@@
-related
pursuit
func@@
guiding
anch@@
hing
ague
ALE
ains
surance
open@@
sheep
prison@@
forbidden
bond
198@@
Production
specification
Follow
fici@@
recti@@
english
regulating
chef
crop
injury
Secretary-General
accountable
desert
electr@@
CS@@
William
assemb@@
influences
Classic
symptoms
recipient
Lud@@
reaffir@@
160
shoulder
inen
All@@
phases
reveals
Division
OSCE
ku@@
Ale@@
compos@@
lifetime
varies
onom@@
coordinating
energy-@@
ja@@
GMOs
bin
jeopardis@@
dn
fireplace
casting
gie
deployed
Meas@@
α@@
Istanbul
м
timately
strongest
cocktail
seller
remedi@@
ration@@
acht
store@@
treating
tise
condem@@
insp@@
intensity
simulation
grass@@
aero@@
attach@@
concent@@
rane
Num@@
shapes
ree@@
locate
alarming
repres@@
Scha@@
shut
horny
motto
opt
categor@@
bulk
curren@@
Down@@
screening
thful
horiz@@
diversi@@
promenade
pus@@
collap@@
Blu@@
thirty
lag
speculation
Jean-@@
tub
biotechnology
satis@@
kov@@
Lea@@
repu@@
instances
Brit@@
p.@@
logies
picked
terrain
trigger
Bren@@
Mir@@
PV@@
corresponds
writers
grated
Annex
seating
connects
stresses
restric@@
organizing
fro@@
happ@@
flower
exercises
recreational
grass
signatures
Francisco
optimization
gard@@
Ris@@
ensive
Zu@@
Motor@@
inet
vegetation
enclo@@
You@@
factories
Intel
orange
Far
Back
prejud@@
ev
hygiene
fort
1986
animation
Ric@@
decides
olog@@
360
pity
istance
concei@@
billions
FO@@
licenses
gladly
Č@@
affair
correspond
amate@@
Sri
contribu@@
τ@@
Connec@@
delightful
alizes
bed@@
Tele@@
pati@@
Sand@@
barely
robots
haven
eme@@
sourcing
9001
Copyright
threaten
Adri@@
sooner
tackled
ado@@
fortress
assa@@
1945
Starting
mins
Near
dossier
fridge
5,000
gle@@
pical
nate
VI
bridges
itude
deliberately
opia
journalist
chron@@
Jer@@
Panasonic
fically
cozy
policymakers
Rock
promptly
th-century
intuitive
democratically
quantitative
Universal
seasonal
1987
Bonn
öl@@
enchanting
persecution
cryst@@
Arabia
frozen
neutr@@
Hom@@
metal@@
protein
cultivation
Pis@@
swim@@
yacht
vian
Competition
Rhine
pow@@
tariffs
EIB
generates
containers
lated
motivation
tap
basin
alle
avoid@@
aboard
manife@@
corner@@
Jac@@
reby
corrected
Ry@@
mitig@@
colourful
Wa@@
Ele@@
gaps
acid
iced
successor
commissioned
confronted
1985
materi@@
Sic@@
Century
Dru@@
Run@@
Objective
tender
renovation
tee
GR@@
Six@@
altogether
Queen
ego
blin@@
mission@@
BA
flora
ar-@@
jazz
Bavaria
tune
Bag@@
husband
contradiction
Championship
lava
Log@@
architects
monastery
ption
Solana
color@@
drawings
deter@@
ounce
enburg
cz@@
nationalism
EE@@
genocide
icons
cave
shame
Bundes@@
B.@@
istence
Gall@@
Level
laundry
jan
conscience
Egyptian
CO
substitute
lend
informations
Word
Direct
sixth
enthusiasts
lished
pragmatic
lun@@
VER@@
ross
Cour@@
API
promotional
lush
lifelong
Verheugen
diag@@
ino@@
Euros
exu@@
ancies
transnational
accurately
mothers
optimize
prevail
Blan@@
vere@@
coni
warrant
additives
Patten
theater
overseas
emotions
solu@@
TC
IL
tired
ader
Holland
first-class
Monte
Acti@@
Scottish
Apache
ña
Ford
strasse
Afghan
Computer
translators
import@@
Application
Hans
matched
ALDE
mechan@@
Kurdish
grace
nity
anne
hib@@
Hussein
Euro-Mediterranean
geome@@
facilitating
mature
therapeutic
disadvantage
livestock
dd@@
notify
flag@@
emergence
prises
Spirit
CM@@
Mé@@
logging
Dr
ernity
revol@@
Various
Quark
YOU
Paul@@
best-@@
tini
simpler
onda
etz@@
Fern@@
Applic@@
verification
Os@@
Tru@@
acle
propaganda
strip
axis
rolled
Lang@@
Tokyo
loun@@
ishment
failures
subsidiaries
recur@@
ective
Kas@@
Lev@@
gian
seed
Arctic
aspirations
Contro@@
este@@
Tou@@
zzo
part-@@
cosmo@@
Super
Analy@@
commission@@
ж@@
auc@@
asi
competing
Ok@@
dealers
gi
Gothic
deposits
applau@@
Vene@@
liberalization
79
tiles
nav@@
tastefully
financially
beginners
viewer
recy@@
30-@@
laun@@
disadvantaged
Nik@@
tlement
eco-@@
vez
neu@@
fulfill
fairs
linear
sustain
awaits
injured
poten@@
plug
Shanghai
aesthetic
Garda
binary
Olymp@@
clarified
replacing
mic@@
load@@
Tools
prizes
subjec@@
instruction
idity
Tob@@
persuade
expects
urity
reminded
Built
по@@
incoming
constituency
thotel
scenic
graph
ea
lacks
Not@@
demo
ambiguous
refund
possession
laim@@
Beg@@
aim@@
Que@@
Little
CAR@@
exported
advertis@@
socio-economic
Starfleet
Cypri@@
pumps
econom@@
Gard@@
ier@@
LAN@@
Ir@@
Zim@@
juice
desig@@
laptop
Ethi@@
conversation
excluding
en-suite
VIP
socialist
pis@@
swim
Taliban
Individu@@
Respon@@
occurring
denom@@
Renaissance
displaced
chaos
incid@@
ouring
ih@@
exemption
priori@@
Stay
conserv@@
Roman@@
Whenever
realities
cum@@
occu@@
ograph@@
inserted
preparatory
honor
stricter
Confi@@
storm
coff@@
Europa
rehabilitation
cription
multitude
cand@@
Iceland
console
shores
peripheral
Sound
severely
understands
ro-@@
Santiago
VO@@
horri@@
playground
Seville
mile
margin@@
ras
rol
geared
achiev@@
olution
Eri@@
exhibitors
endo
idyllic
experimental
Mü@@
acce@@
Send
dow
possess
dex
EP
chester
tariat
thms
alysis
pulse
.ch
Cz@@
Ibiza
Regi@@
Stal@@
Monte@@
lay@@
Daniel
Throughout
wholly
crimin@@
participant
IF
forecasts
memorable
modi@@
nine@@
U-@@
Premium
compensate
None
4,@@
appropriately
Long
exceeded
sciences
interven@@
uncertain
eva
lou@@
inhab@@
blow
slave
Kat@@
Leg@@
abolished
Brow@@
vide@@
licensing
gau@@
incurred
patience
Fourthly
Lay@@
140
devastating
thread
piz@@
envis@@
predomin@@
air-conditioning
good@@
dear
nos
enforced
Commerce
amm@@
pered
scal@@
formulated
gifts
bear@@
lit
blend
cocktails
AKVIS
showers
Tradi@@
licences
Child
proving
Om@@
critique
exclu@@
oom
shu@@
indu@@
rentals
mitting
anxi@@
pir@@
columns
finger@@
ole
soli@@
Fur@@
psy@@
enn@@
sin
temple
valuation
directors
Volk@@
beg@@
tongue
extract
Articles
manoeu@@
brown
Pom@@
templates
Mark@@
Keep
age-@@
mony
punished
trucks
Ped@@
tainment
forti@@
eder
hydraulic
worthwhile
brochure
privilege
Dur@@
LateRooms.com
stry
oto@@
Fischler
ér@@
Sky@@
ados
ь
ambigu@@
eleg@@
ank
unclear
realization
magical
Works
Tat@@
yl
expecting
feeding
upgraded
infected
Fuer@@
Already
remark
Tibetan
concer@@
ender
likes
aser
Lanzarote
precedent
critics
Accordingly
flour@@
respec@@
Water@@
devote
cour@@
youn@@
earliest
astically
Sarkozy
yours
peaks
rant
fast@@
demic
occasionally
spective
Michel@@
debi@@
SER@@
preced@@
awaiting
positioning
Santer
loss@@
mixing
alleged
Malaysia
assumes
Tourist
proofed
begin@@
10,000
tastes
Parking
En
room@@
Winter
cut@@
fashionable
Tic@@
ae
issuing
propri@@
Jean
enfor@@
emails
на@@
phony
acres
postponed
nees
tine
az
rea@@
elimination
volcan@@
menting
peninsula
Cala
medium-@@
FAQ
truck
pit@@
Serbian
pesticides
tising
reformed
Gate
3.0
Venezuela
phot@@
dying
persistent
Madeira
behold
nets
encrypted
Gros@@
DS@@
mead@@
slot
5.00
Poly@@
aks
complied
GBP
north-@@
manag@@
sky@@
affor@@
aan
GM
Gy@@
ре@@
venti@@
yards
Montre@@
DI
packing
8th
pretext
Five
ethics
tones
jump
Concer@@
delight
assumption
Appro@@
Well@@
misleading
Ster@@
tas
flood
Alp@@
recruitment
c.
repercussions
coloured
entails
chronic
amaz@@
Official
liberty
accus@@
anybody
Installation
Tampere
wild@@
Jar@@
Hop@@
fortun@@
produc@@
contro@@
tech@@
Hitler
O-@@
valleys
negoti@@
seeds
Key
Ticket
Cent@@
college
burdens
vocal
oils
Proc@@
Es
breast
smoothly
backdrop
PPE
poe@@
dynamics
thic
Sant
masters
infin@@
ius
inia
wholeheartedly
oli
Often
Cair@@
cataly@@
Days
capita
dirty
Hei@@
copper
disappointing
chem@@
optimistic
Initiative
passive
creatures
Darfur
conceived
itiner@@
craft@@
monument
idad
acute
calculations
state-@@
dies@@
duly
clim@@
ig
tends
-Ben@@
enthusiastic
preview
proprietary
scandal
Prix
restriction
arities
lawyer
chair@@
ALL
1.2
recordings
alleg@@
prohibi@@
Jan
reb@@
balancing
professionalism
old@@
Sak@@
suspect
kitchenette
Americ@@
nationality
Hill
frequ@@
populated
mates
ames
Review
Nord
informa@@
Sti@@
py@@
judged
Tool
ld
delic@@
Available
enshrined
stimulating
Nazi
tik
emen
Suc@@
inequalities
criticisms
mark@@
lucky
usable
zum
erals
bets
clari@@
Create
cellar
Police
shaping
NG
pixels
destroying
lateral
heres
oven
How@@
undering
High-@@
altered
manages
Aud@@
ored
bor
Clau@@
biofuels
biom@@
Fire@@
likewise
scenarios
ule
149
Inst@@
consul@@
donations
plastics
Histor@@
tti
documentary
stra
resident
W.
dal@@
thre@@
lumin@@
beneficiaries
Secur@@
steady
Thys@@
ota
bere@@
Human@@
geograph@@
biking
tam@@
Alternatively
somehow
pers
timber
HS
5,@@
reco@@
tability
approaching
forecast
cosmetic
celebrations
parish
mutually
cept
Bed@@
cular
shoe
sister
Reli@@
Smith
definitive
sudden
harsh
PS@@
conception
Mart@@
indicator
hoo@@
traces
German-@@
copy@@
alqu@@
submission
esthouse
tier
GO
12th
jury
vague
defended
secular
longest
ladi@@
Victoria
environment@@
synthetic
ic-@@
ied
irresponsible
Collection
brac@@
Customers
ex
ario
puty
Tam@@
Brazilian
seg@@
Reader
Cubase
scape
Kam@@
consultancy
advocates
SSL
zur
radioactive
cast@@
junior
Kel@@
establishes
life-@@
Prof.
encing
nasty
Consulting
Caucasus
resume
Speed
Liberals
imagin@@
broke
multilingual
Mod@@
childhood
sons
Supp@@
Prince
generic
grows
unexpected
rigid
rays
cease
cost@@
genic
Ener@@
indicating
child@@
seven@@
pipe
Mary
L-@@
cel
ledge
easy-to-@@
switching
armament
Resolution
Ideal
izes
A4-@@
Dan@@
determines
Scientific
thodo@@
manipulation
humane
Dav@@
nau@@
third-country
smugg@@
Imperi@@
recommends
Veg@@
righ@@
high-level
Bill
1979
fluctu@@
powder
travelers
MEP
shipped
Kling@@
Store
Where@@
self-employed
nach
contamination
Companies
Harbour
incomplete
Timor
opping
alu@@
ratic
tournaments
ouses
purchaser
embargo
hang
cross-country
lamps
submitting
tif
year-@@
arious
chapters
thou
Sz@@
emann
handy
Taking
rebel@@
cafes
substitu@@
Remember
ede
pub@@
firm@@
Presid@@
trage@@
discriminatory
thetic
fant@@
sevent@@
discoura@@
acity
Purch@@
strate@@
snack
demonstrating
lingu@@
sq@@
mankind
vens
dent
prospec@@
Monti
berger
sau@@
Sto@@
Naples
loud
catastro@@
Jah@@
Goals
Protec@@
Balkan
onics
retreat
anonymous
bric@@
ratings
phenomena
mix@@
expl@@
foreigners
hotel@@
Natur@@
democ@@
cements
shire
Basic
patented
strengths
passage
sume
depar@@
tees
ICE@@
quali@@
atable
Others
din
third-party
lip@@
Upper
solv@@
hat@@
slope
Ei@@
unite
seem@@
spati@@
Gold@@
tants
alert
scha@@
akh@@
ming@@
Invest@@
investor
LY
foo@@
ineffective
balconies
ab
Alber@@
Particip@@
uss
shar@@
gra
judg@@
ference
68@@
copied
finger
anni
para@@
tance
V-@@
triple
obo@@
scores
acious
GUE
gent
seal
ee@@
reflecting
echo@@
ito
IVE
royal
RAM
adju@@
articul@@
coin
stell@@
internally
caution
plant@@
Director@@
confused
Magic
SMS
echo
regi@@
criticised
harmonise
livel@@
cam
CI@@
Auth@@
attributes
Parag@@
adhere
icon@@
architec@@
sies
straße
past@@
locals
font
distortion
ny@@
wide-ranging
Israelis
warmth
market@@
straightforward
inventory
termination
Globalisation
cio
appalling
bedding
gratitude
kel@@
PX@@
interrupted
school@@
under-@@
investigated
left-@@
Dry
Majorca
weekends
Mach@@
cookie
remun@@
excav@@
ppers
durable
BE@@
intermediate
Surely
inherent
kov
browse
`s
Gab@@
winds
attered
hell
ceilings
mart@@
gau
rez
destabil@@
tolerable
tful
sie@@
recogn@@
accessing
accesses
Pak@@
pd@@
pled
interpret
disappointment
qui
betting
EST
Merce@@
Audio
Buyer
eted
accelerate
deterioration
fines
combinations
chant
Ether@@
wron@@
beverages
alla
tium
tough@@
Tow@@
Thea@@
outermost
high-performance
high-tech
lick
fea@@
atmosp@@
Cle@@
wel
Av@@
sunshine
Jordan
anna
Milosevic
Hin@@
Limited
weaken
Parad@@
block@@
iti@@
urged
ilers
appealing
receiver
univers@@
judiciary
eters
guys
massages
rants
assass@@
fixes
MAN@@
banana
Love
resolu@@
Beautiful
princip@@
logos
opposing
commodities
erious
Guid@@
Comman@@
merit
Schi@@
violated
Tor
Directors
share@@
tized
cost-effective
sentences
alig@@
domains
coat
tum
ICE
cris@@
confront
ud
worn
state@@
scanner
clou@@
café
Stor@@
Premier
Laundry
Granada
partitions
patio
contr@@
methodology
UPS
adjustable
COM@@
adapting
fauna
traveling
ix@@
isted
weaker
ody
ione
nels
suicide
dev
pric@@
steadily
MD@@
yach@@
public-@@
brush
Eli@@
Sky
assisted
Antonio
Euro-@@
Cleaning
aint
ped@@
learnt
ient
extensions
Studies
MID@@
pupils
climb
manship
sures
Fis@@
exagger@@
eval
loyalty
tuna
Mah@@
flags
Photo
friendship
democratisation
And@@
vern@@
kir@@
critici@@
lasts
36@@
essors
shoot
letting
Steel
resses
Print
1984
alous
Chan@@
Australian
Overall
ush@@
Cla@@
deliber@@
engineer
appoint
innov@@
rail@@
integra@@
hand-@@
enna
performs
22@@
hub
Sud@@
hausen
Head@@
unequi@@
Excel
ś@@
HR
tem
Adminis@@
mach@@
dependency
rea
rooted
planted
jer@@
PCs
Kol@@
Jacuzzi
ceas@@
calculate
applicants
predecessor
Sus@@
filed
sick
Var@@
rd
smell
Clinton
dare
BER@@
duced
Broad@@
shoul@@
lot@@
county
civilisation
tex
seasons
regulators
Sir
famili@@
circles
outlook
unchanged
conven@@
pilgri@@
fres@@
il-@@
market-@@
Manhattan
lobb@@
wich
emul@@
PRO
rought
rendered
ailed
Mill@@
Hein@@
illegally
L.
somebody
shir@@
meg@@
Stock
uous
neck
interiors
senses
TION
Countries
owe
dancing
mask
450
authoritarian
celeb@@
lon
sacrifice
Fas@@
Ow@@
iously
11th
FS
intermedi@@
welding
specialties
agne
PEG
orph@@
Beyond
rage
Pet@@
Andreas
Recent
edges
qualify
plat@@
Bavarian
cap
MAR@@
abortion
pubs
transposition
Marbella
norms
destructive
TEN@@
Hear@@
supplying
confined
defect
diction
prolong@@
ATA
Cape
underway
Slovenian
sat
annex@@
Nobody
consuming
dog@@
motiv@@
Jackson
reason@@
Hot@@
icken
echan@@
assembled
compressed
metre
petrol
Cros@@
restoring
ront
marina
anu@@
AV
J.
Every@@
readily
sever@@
consci@@
rock@@
interoper@@
nominated
Buc@@
operative
Cou@@
Spo@@
zione
towers
sharply
assortment
depression
descri@@
Cube
empire
distingu@@
Wales
concluding
franch@@
S.A.
bow
footing
composer
continents
revolu@@
gras@@
levard
Oslo
viate
bank@@
onwards
mary
gates
thou@@
pipes
sic
surveys
refin@@
cos
eck
Palacio
Jacques
accomodation
opponent
sie
subway
expresses
negligence
Brok
physics
heim@@
ridicul@@
DIN
emphasises
Wine
coupled
EURO@@
merits
encouragement
detriment
Exclu@@
singing
sail
Gift
passwords
vation
Active
well-equipped
TU@@
athon
risen
lifted
anian
foreseen
day-to-day
tubes
interfere
mart
notable
employs
terri@@
leverage
murdered
Fat@@
ashing
ails
stru@@
sofar
те@@
warned
frame@@
5-star
Fit@@
comitology
comprising
lengthy
Was
aband@@
M-@@
prosperous
glance
threatens
Tab@@
nee@@
eventh
rhe@@
ronze
Christop@@
tails
auto
Architec@@
ained
plug-in
1.
tup
neighborhood
org@@
reflec@@
Cav@@
elles
pole
rov@@
toll
astronom@@
Cham@@
buyers
undermined
fa
Points
copying
realisation
berry
labor@@
dum
swift
ications
browsing
Baroness
ei
kindly
leng@@
tum@@
protocols
ament
illi@@
graduate
timate
phas@@
erian
enjoyment
ο@@
FR@@
cyc@@
phic
Avenue
draft@@
recipes
harmonious
amper
monitors
Airconditioning
inning
wer
rative
terminals
bungal@@
Extre@@
Machine
Supreme
foc@@
apolog@@
ente@@
3000
meta@@
plate@@
PRE@@
ob
folders
azzo
Pie@@
antibio@@
rain@@
influential
galax@@
1978
Eurex
über
wur@@
shop@@
doctr@@
exemplary
umping
TI@@
grapes
trillion
immune
benefited
legs
loose
exert
offensive
Arc@@
certain@@
sectoral
traders
atro@@
even@@
mysq@@
mously
who@@
explanatory
tages
Perfect
envel@@
Easter
то@@
breakthrough
swiftly
curious
sided
elli
Scot@@
perpetr@@
coup
Rü@@
scri@@
informative
Property
Algarve
commit@@
Channel
six-@@
consciousness
amps
Mexican
capitalist
liqui@@
hybrid
midnight
bomb
imply
Managing
gos
iki
enko
electorate
vocation
contradictory
skirts
Bahn
sadd@@
ITY
offer@@
venues
exhaust
expressions
amping
triggered
benef@@
undermining
cosme@@
bass
cleaned
puzz@@
cluster
mentioning
LateRooms
enta@@
bene@@
salaries
Lodge
äl@@
umes
Clean
Alpha
bli@@
discovering
wen@@
emistry
uphold
1970s
pocket
writes
volunteers
Customs
thickness
employer
gram@@
relatives
builds
Pool
zon
invented
ellschaft
wellbeing
multip@@
ova
Province
bunal
federation
premature
data-@@
happiness
Lul@@
IE@@
т
Outlook
Eu@@
eo
Too
zip
Bau@@
bottles
archaeological
contin@@
mation
insulation
Pir@@
corners
Km
TER@@
Added
saves
ogene@@
Shor@@
just@@
desires
1960
muy
Reco@@
kling
sid
vivi@@
Da@@
ceramic
remembered
wheel@@
Vision
Night
reproductive
completeness
loop
neighbor@@
username
Mugabe
Major
ley@@
volunte@@
locating
oustic
impa@@
Anna
ador@@
WiFi
thly
differing
incap@@
obligatory
bits
surprisingly
assing
math
champion
TA@@
MI@@
feld
ailing
Newsletter
enced
emis@@
YO@@
pad
contracting
ourse
jung@@
acquain@@
icia
ilit@@
sqm
inate
simplicity
ush
cake
Sher@@
hike
Peru
Ya@@
Editor
compression
Philipp@@
grip
ank@@
5-minute
stopping
С@@
macro-@@
ka@@
provisi@@
institutes
SV@@
outcomes
facto
evid@@
lectures
disability
ux@@
warn
kies
catastrophe
predict
correctness
dner
planes
Temple
Produc@@
Kenya
replic@@
electron@@
petition
paren@@
carriage
avo@@
Lum@@
exceeds
tment
own-initiative
Voy@@
det@@
liers
femin@@
DNA
Rim@@
cooperating
formations
fairness
corrupt
Magaz@@
subsidy
approxim@@
cruise
mois@@
tempor@@
ï@@
liche
shirt
DH@@
Zü@@
Terr@@
Apart@@
Soci@@
ę@@
castles
tick
claiming
refuge
strengthens
lac@@
monies
entation
Panel
ram
dedication
Edit
disparities
crowd
Sop@@
atell@@
exer@@
m.
assuming
Soft
Tyrolean
Buil@@
volcanic
brothers
cant@@
assign
Clar@@
omas
Rhe@@
Awards
politician
mentions
akan
Focus
eleven
recei@@
urch
Kinnock
ssel@@
ake
um-@@
acher
promotions
CC@@
dial@@
som@@
odds
interviews
plun@@
flat-@@
Sev@@
Monitoring
pit
disorders
Guant@@
Course
photographers
touches
adventures
behave
representa@@
world-wide
salary
mat
Buenos
Aires
ль@@
entos
design@@
machining
1975
mare
pational
orrow
æ@@
ex-@@
eved
rings
avia
focal
accid@@
Superior
Gardens
constra@@
G20
torate
retailers
enge
FTP
Cuban
Gh@@
transferring
analyze
Visitors
ority
illustrate
servants
TEC@@
Aid
Alg@@
suspend
stant
entirety
tasting
elem@@
cloning
CP@@
INTER@@
corro@@
Father
sponsored
vering
prevailing
athletes
Industri@@
Accom@@
tailed
Kremlin
kingdom
weakened
Join
cere@@
rough
preci@@
infra@@
-scale
pension@@
porno@@
Posi@@
Bris@@
colo@@
Terminal
semin@@
kking
Photocopying
formers
Bow@@
recipe
Van@@
motors
php
atus
trium@@
moratorium
model@@
four@@
ral
quot@@
robot
Share
marvellous
staff@@
satel@@
IFA
pp
Commer@@
Tuscan
Karl
Treas@@
lawful
ción
favoured
occurren@@
particles
associ@@
evaluating
coa
dozens
shut@@
harm@@
Cambodia
Neighbourhood
vec@@
ghty
glo@@
Generally
attendance
fec@@
tige
palm
appren@@
disturbing
brake
Solar
ça
mittedly
Barack
trusted
fruitful
xenophobia
feeds
strain
minors
Kh@@
lav@@
enchan@@
charts
alises
ias
roman@@
I.@@
xx
ESS
à-@@
adop@@
luc@@
Yo@@
Text
nowhere
dark@@
postpon@@
bahn
ern@@
realm
spiring
BE
bag@@
ampli@@
dell
achi@@
stur@@
PG
vend@@
lywood
sper@@
eral
embrace
stamp
Nuclear
exporting
aste
tolerate
qualitative
Wür@@
wealthy
12-@@
riders
outbreak
abolish
deprived
dele@@
condemnation
user-@@
remit
stuck
milestone
warnings
CAN@@
scrip@@
icing
metric
dose
Christi@@
Maxim@@
rebuild
requesting
elect
Pos@@
deregulation
ttably
Bluetooth
Making
Us
ball@@
evalu@@
administrations
offences
deal@@
monopolies
not@@
awn
і@@
proactive
enta
MIN@@
forge
Sm@@
clinic
ment-@@
ok@@
Bah@@
souven@@
obs@@
ε@@
balls
eme
mond
now@@
family-@@
veto
expan@@
actu@@
mid-term
Bali
desper@@
Base
PP
repository
dad
quo
Wol@@
1967
publisher
tiveness
legend
easi@@
traceability
steering
printers
cautious
istent
sted
rolls
à@@
otic
bankrupt@@
Adv@@
inquiries
ouse@@
Money
Sciences
atoes
incompatible
absent
complain
flats
appliances
excursion
theatres
tility
favor@@
hits
much-@@
во@@
arch
breath
erg@@
workflow
Oil
advisable
consecu@@
ß
intervals
Juan
objection
postpone
strings
Personally
Deep
REACH
homos@@
photograph
poorly
Partners
K-@@
rid@@
norm@@
nicely
adapter
pedia
erne
Emer@@
historically
traded
passionate
lions
cables
appropri@@
ambass@@
Class@@
dise
insecurity
professor
extraction
evolved
Better
Venetian
Never
chic
renew@@
optimism
Governments
Yugosla@@
arisen
simplifying
mortality
xing
ing-up
tended
apix@@
Tren@@
Sof@@
DJ
eag@@
ORE
brochures
multiannual
esome
suspected
celebrating
insisted
porte@@
unspo@@
atri@@
reck@@
24th
make@@
vil
neglected
Ages
answ@@
eye@@
wird
Concerning
rewards
refrain
exercised
Usu@@
Mozilla
Chapter
urable
courageous
abstain
injuries
drama
Numerous
overlook
Eurostat
tioners
SM
urban@@
basket
2,000
1982
aids
clearing
helicopter
HOTEL
BAS@@
organisational
advent@@
impressions
midd@@
icht
neighbour
dan@@
slogan
challenged
level@@
constituents
yar@@
Vinc@@
frankly
supposedly
-wide
DL@@
bananas
erred
Important
Register
Formul@@
Lido
newer
additionally
govern
assignment
vag@@
beam
Lic@@
wasted
Color
Lower
pitch
NOR@@
Conver@@
pment
kable
raph
hren@@
té
BL@@
Pass
Scre@@
derivatives
rents
forefront
worries
rush
Sard@@
lung
Early
overlooks
70@@
twenti@@
sos
pharm@@
WW@@
attributed
Prov@@
fiction
Emperor
radic@@
ause
internation@@
Angeles
pluralism
Luk@@
Facebook
molec@@
underlined
tox@@
anium
tutorial
circu@@
redund@@
TRA@@
Chicago
Virtual
egg
Ax@@
acre
struggling
rides
bir@@
decisi@@
lichen
brick
philosoph@@
stres@@
Players
Democrat
criticise
Mik@@
lamp
foreseeable
Tom
Heidel@@
DO
Disk
Pow@@
neighbors
lish
inaugur@@
US-@@
redundant
deduc@@
Journal
gun
ferences
delights
Creative
casts
Henry
jacuzzi
ean
ject
cleaner
frontier
bedded
activation
explaining
start-@@
skiers
lady
agers
2007-2013
OM
ults
inem
thrust
mercury
understand@@
harmonization
parall@@
til
displaying
South-@@
lov@@
Norwe@@
albu@@
boot@@
Event
habits
literary
harvest
subsi@@
Camp
iga
bek@@
lette
ural
portive
vie
Camping
excessively
sentenced
controllers
arran@@
inspectors
Café
Stat@@
13.@@
geon
Ten
Lot@@
debut
persecu@@
suspicion
floating
unwind
Associ@@
compile
auf@@
unilater@@
exterior
bered
declining
aciones
distortions
tima
Spy@@
forwarded
streams
Automatic
administr@@
veri@@
wee@@
eder@@
Uz@@
Rub@@
smile
ún
award-winning
entail
barbec@@
Visual
imprisoned
Fine
reminds
Bangkok
fast-@@
associate
Canal
blow@@
Deutschland
Pul@@
liv@@
e.
Chall@@
lishing
reas@@
pole@@
energe@@
contaminated
ι@@
thematic
canal
hanging
osis
18-@@
anten@@
Leonardo
Nev@@
activ@@
Metro@@
isations
ternal
Ple@@
directories
highlighting
Chair
reminder
hia
2.2
har
Frontex
racks
Remo@@
eman@@
Buff@@
anticipate
adi
Categ@@
water-@@
breaches
Split
Sustainable
stric@@
loader
tancy
dez
ş@@
revit@@
Basque
oxy@@
geopolitical
develop@@
cely
teful
desperate
sio
engaging
browsers
Fire
CFSP
mirrors
geographic
NGL
rejecting
Frank
tice
NG@@
DN@@
nes@@
verage
simultaneous
profitability
till@@
mated
polite
Sport@@
1.1
inability
hard-@@
istics
religions
wap
Different
housed
g.
gered
tels
reiter@@
bury
iture
beta
Continental
Pierre
refusing
mana
True
Guinea
A5-0@@
editorial
narrow@@
Det@@
sadly
loop@@
ionship
elf
strugg@@
Verts
nick@@
long-standing
isons
turally
guy
glacier
beliefs
stup@@
upgrading
enligh@@
inven@@
prostitution
neuro@@
35@@
impacts
6,@@
span
ange
Ji@@
afore@@
Submitted
total@@
Compu@@
Chernoby@@
nut
Innsbruck
parliamentarians
mente
dental
fes@@
hall@@
His@@
precondition
analysed
earmarked
ovo
detrimental
defeated
Moder@@
Bremen
Maj@@
stroke
Prec@@
lites
cooked
addic@@
fixing
José
aren
proxy
uro
G8
pockets
Program@@
call@@
Bla@@
extensively
aca
Performance
Comfort
Tenerife
ml
ORK
lap
tale
jack
stadium
ae@@
alcoholic
Georgian
mainland
aki
ither
rations
Oxford
faults
Converter
Visa
cha
tabling
deliberate
simpl@@
Platform
Ltd.
didn
Consum@@
illustrated
aves
Dub@@
collectively
targeting
successive
recovered
resemb@@
VIEW
Stad@@
Od@@
Malaga
Sis@@
Translation
dney
gateway
Ash@@
distributor
mono@@
Castel@@
Link
Oracle
Karl@@
ua
bund@@
TW@@
excitement
deni@@
journeys
laboratories
spr@@
1981
corporation
ttes
belong@@
TAC@@
bicy@@
easing
fashi@@
counterparts
stipulated
peculi@@
allocate
Pel@@
tags
vendors
watch@@
nas@@
embo@@
hion
Syrian
keywords
supran@@
Dubai
inj@@
dule
boutiques
ward-looking
reforming
Krup@@
endi@@
intact
POR@@
SPA
esse
Tool@@
tato
act@@
install@@
lich@@
photographic
0.5
Port@@
tailor-made
USE
cens@@
Events
ported
substantive
margins
lon@@
Blizz@@
analog
spirits
orienta@@
percei@@
before@@
statistic
hitherto
Guate@@
crowded
Junior
1960s
advertisements
elaborate
aes@@
warded
crisy
transmit
fleets
25th
Turn
H-@@
dead@@
90@@
rics
х
consumed
SCH@@
Blog
ois
questionable
handles
bbles
advertisement
usti@@
xious
tm@@
weg
Má@@
Johann@@
Azerbaij@@
elegan@@
og
Unter@@
sians
Ug@@
Sing@@
abeth
trol@@
cart
Apar@@
CPU
PA@@
Karel
fing@@
Ambass@@
After@@
cinem@@
virtue
generator
Cadiz
unsatisfactory
gues
diversification
Cant@@
TB
wir
Name
nose
Intro@@
UT
appointments
belts
Verona
honey
istants
facilitates
bizar@@
raft
cereals
farmer
combus@@
communicated
ASEAN
abide
memor@@
eon
Quark@@
observer
abstract
authorization
user-friendly
Rav@@
radically
Pension
breakdown
Abu
Doctor
Legis@@
ii
Univer@@
caves
MEN@@
hatred
precau@@
holdings
ricul@@
processors
non-profit
commemor@@
manufactures
comprehen@@
Belar@@
vest@@
tenant
pix@@
ń@@
itations
sugge@@
natur@@
gress
icul@@
ghted
periph@@
anci@@
imple@@
consum@@
anese
rying
chil@@
sour@@
cust@@
Chil@@
plause
erc@@
Bun@@
thes@@
icy@@
toil@@
ML
ennium
Jose@@
follow@@
wir@@
aying
conv@@
effec@@
ktop
devast@@
asters
multin@@
umps
efully
anks
reve@@
technolo@@
circ@@
confir@@
facilit@@
Ini@@
Thir@@
larg@@
optimi@@
competi@@
sumption
governmental
Spr@@
dir@@
ë@@
veries
Rich@@
ear
conflic@@
entary

consult@@
exerc@@
thouse
dity
gram
gene@@
situ@@
competen@@
throu@@
ater@@
house@@
Innov@@
lars
dens@@
hel
wed@@
tom
Whe@@
Deutsch@@
Nig@@
reat@@
ected
entially
exter@@
issu@@
municip@@
Turk@@
hang@@
aca@@
protection@@
warran@@
campaig@@
yo
junc@@
gest
portation
Vide@@
advant@@
recip@@
appreci@@
sus@@
Cul@@
dio
Strate@@
protec@@
percep@@
proof@@
impres@@
plen@@
junction
nex
Swe@@
moun@@
oura@@
guards
Collec@@
reng@@
enni@@
tness
Yu@@
spectac@@
Afr@@
rested
guit@@
Clin@@
balances
ы
nover
lements
episo@@
beli@@
liance
plying
magne@@
insula
ò
anticip@@
overwhel@@
rele@@
Moroc@@
Doc@@
signat@@
ż@@
atures
rat
erad@@
theat@@
succe@@
quanti@@
Agricul@@
clin@@
Gaz@@
mot@@
extre@@
hes@@
arance
ц@@
phil@@
pover@@
techni@@
reach@@
iP@@
ardi@@
exci@@
check-@@
consoli@@
compe@@
ources
minent
anced
congratul@@
traff@@
arer
otive
stop@@
asis
oters
tren@@
assur@@
consequ@@
Bud@@
nya
volun@@
rian
meas@@
occa@@
proble@@
Gree@@
Goo@@
prepa@@
Sau@@
icip@@
asion
shr@@
Nat@@
feed@@
upgra@@
classi@@
choo@@
U.@@
brief@@
life@@
injec@@
philos@@
icy
deli@@
boun@@
~
É@@
ш@@
activis@@
inity
Pho@@
near@@
plu@@
lement
gir@@
proxim@@
convers@@
depri@@
docu@@
geous
juris@@
recommen@@
org
Person@@
flexi@@
rench
Indone@@
у
vul@@
concentr@@
witn@@
excell@@
Chec@@
titude
minu@@
abol@@
alties
Jav@@
air-@@
inion
aily
gence
itu@@
pol
elabor@@
plur@@
introduc@@
qualit@@
ße
Joh@@
partment
ags
symb@@
presti@@
conveni@@
birth@@
liter@@
Cast@@
athle@@
nic
Instru@@
invent@@
refer@@
phr@@
rom
Hung@@
refu@@
undermin@@
particul@@
etary
Lei@@
iso@@
Slo@@
Script
ator@@
icity
ý@@
Agre@@
Angel@@
vulner@@
tooth
criptions
Rh@@
worl@@
dedic@@
listen@@
tici@@
ulf
ghtful
intellec@@
ured
trade@@
Sci@@
ordination
Argent@@
monu@@
Satur@@

see@@
onymous
dows
â
azz
agg@@
fascin@@
experim@@
ä
lux@@
attr@@
ا@@
Aug@@
cohe@@
dios
enth
hus@@
rol@@
cling
Colom@@
Af@@
expres@@
tty
remin@@
abs@@
liances
fortunately
Secre@@
-in
quiries
petro@@
anta
xy
ime
lean
remain@@
enlarg@@
Simil@@
orities
access@@
pup@@
reci@@
ape@@
helicop@@
democra@@
trigg@@
Victor@@
spect
racy
subs@@
versal
Anton@@
param@@
will@@
σ@@
certi@@
rent@@
Lithu@@
astro@@
plic@@
etings
Chin@@
stun@@
marg@@
safeguar@@
adequ@@
tention
dou@@
ditions
green@@
vine@@
Technolo@@
noti@@
Restaur@@
oot
distinc@@
Syste@@
optim@@
decision-@@
gment
opport@@
nationally
bureauc@@
uster
consis@@
Serv@@
real-@@
tially
job@@
emplo@@
aspi@@

warm@@
accum@@
taxpay@@
beau@@
exhibi@@
π@@
igno@@
dau@@
ğ@@
valent
hydra@@
nect
ryst@@
German@@
cos@@
anni@@
r.
kra@@
gratul@@
Pers@@
festi@@
α
earning
ave@@
ă@@
temper@@
ardo
countr@@
Engine@@
uti@@
ą@@
ander
nific@@
liam@@
sensi@@
kitch@@
surg@@
fem@@
xide
nd
Leon@@
hesit@@
ā@@
Tai@@
utes
assign@@
aris@@
demonstr@@
enty
affec@@
grap@@
alian
teach@@
nolo@@
applic@@
Glob@@
hind
deman@@
gle
Caf@@
lum
lef@@
jeop@@
sched@@
propag@@
some@@
differen@@
sib@@
ρ@@
utsch@@
sci@@
acier
enthusi@@
raid
NAT@@
parag@@
μ@@
eps
tra-@@
Soli@@
aining
IB
prou@@
candi@@
remark@@
fores@@
Leban@@
fur
Jour@@
icial
breath@@
ficial
guid@@
sharp@@
ard-@@
wered
Á@@
Davi@@
dden
deci@@
wr@@
Minis@@
inian
expend@@
ð@@
dispar@@
apest
hosp@@
lative
Amon@@
³
Ath@@
Os
hic@@
gible
reper@@
001
С
cil
dispens@@
Langu@@
shine
Loo@@
alterna@@
κ@@
lear
Phone
seas@@
Holi@@
ongside
ò@@
ock
iry
him@@
tedly
й@@
financi@@
assu@@
wan
24-@@
oblig@@
where@@
leis@@
х@@
determin@@
behavi@@
writ@@
grat@@
fortunate
Sep@@
neys
Chech@@
क@@
alog
dispos@@
Dep@@
zar@@
aul
ù
telec@@
airy
eras
rescu@@
ould
enda
Rena@@
fing
Yor@@
Peti@@
thous@@
lead@@
preme
ide
far-@@
led@@
critic@@
defin@@
premis@@
icals
Å@@
thres@@
emphas@@
inspi@@
Alter@@
ю@@
issance
Viet@@
fail@@
restruc@@
discus@@
simpli@@
gal
ves@@
Install@@
engine@@
ingredi@@
ellow
ught
polit@@
anish
erly
corpor@@
thering
transfer@@
evi@@
Stock@@
abor@@
suspen@@
tissu@@
Chic@@
incre@@
recre@@
ligence
holi@@
forec@@
Situ@@
furt
ν@@
prerequ@@
ession@@
derly
avail@@
gy-@@
transi@@
landscap@@
visory
icking
sligh@@
bloc@@
ista
nical
thered
toral
alco@@
Manag@@
nail
apart@@
genous
rit
imper@@
nois@@
ф@@
ل@@
specific@@
urs@@
rev@@
dea@@
tories
benefici@@
secur@@
replac@@
Representa@@
posit@@
ा@@
vest
ww@@
schaft
Dolom@@
lam
declar@@
macro@@
ince
renov@@
dwide
surroun@@
ilian
opho@@
Resp@@
¿
fice
big@@
dictator@@
Barcel@@
Hus@@
great@@
peror
cau@@
predec@@
č
Proce@@
vious
crete
fiel@@
thes
elimin@@
Schul@@
tradi@@
uris@@
anal@@
acqui@@
indi@@
smoo@@
tles
fas@@
particip@@
portfo@@
prag@@
к
reh@@
user@@
susta@@
Barro@@
rigi@@
calend@@
neighbour@@
encoun@@
λ@@
marvel@@
photograph@@
guaran@@
confid@@
brow@@
Azer@@
pursu@@
gui@@
tably
exis@@
exten@@
rupted
esting
encia
deg@@
satisfac@@
instal@@
erous
Treat@@
stronom@@
avoi@@
employ@@
pedestri@@
itability
phen@@
arbit@@
Agr@@
intere@@
torial
week@@
theore@@
sympa@@
eij@@
Ž@@
retail@@
methodo@@
õ@@
astery
Fish@@
fore
Ox@@
Squ@@
teries
Jack@@
necess@@
acquisi@@
edoms
goti@@
subsidi@@
decla@@
Smoking
transpa@@
abe
resul@@
arbitr@@
restaur@@
bourg
ece
sche@@
ight@@
strate
comfor@@
i.@@
meaning@@
tenance
gall@@
king.com
skir@@
½
erto
tish
xim@@
viously
preser@@
ticle
Ä@@
acces@@
effici@@
plom@@
beha@@
pictu@@
radio@@
feat@@
roup
→
vered
wide-@@
zzi
resor@@
tril@@
Austri@@
capac@@
soldi@@
apor@@
hoste@@
partments
º
ь@@
cock@@
plau@@
luxur@@
sop@@
pha
pharmaceu@@
Reser@@
imm@@
thick@@
success@@
fall@@
mly
colour@@
emerg@@
с
ower
vill@@
ą
schedul@@
щ@@
ciples
cess
menade
Brus@@
Dü@@
Cust@@
duce
refore
hibi@@
rors
telecommun@@
suffici@@
tence
isite
safe@@
Iraq@@
incorrec@@
astly
ssi@@
ő@@
enery
titu@@
rena
accomo@@
urred
stuffs
š
switch@@
refurb@@
burd@@
्
accep@@
SQ@@
astr@@
inno@@
itably
Hit@@
know@@
Hoste@@
versa@@
nish
defini@@
Koso@@
Excell@@
prom@@
Dani@@
mbass@@
LAF
Clean@@
Smo@@
itly
inclu@@
inspec@@
Tunis@@
ń
э@@
Dig@@
Custom@@
Rail@@
atlantic
Feder@@
ě
GB@@
magnific@@
eler@@
ucks
Cher@@
sein
ı
Non@@
swi@@
coast@@
preven@@
surve@@
keting
outh
ember
substan@@
continu@@
Temp@@
Educ@@
exac@@
Scienti@@
ö
asm
symbo@@
ecu@@
eties
schem@@
ς
chae@@
gare@@
carri@@
ommun@@
Lit@@
immen@@
fil
versity
dreds
dations
deem@@
intui@@
Tibet@@
mely
destro@@
Premi@@
Stras@@
sent@@
third-@@
yal
Moun@@
ften
Proper@@
Sloven@@
deriv@@
Ã
oner
Cali@@
cide
VIS
proportion@@
entreprene@@
join@@
bai
Colle@@
ć@@
Wik@@
sequently
Swit@@
conclu@@
Isra@@
Clas@@
uman
ungal@@
amic
lingual
langu@@
policy@@
ource
acco
Writ@@
mari@@
orium
2007-@@
gotten
hic
İ@@
dossi@@
tonom@@
pens@@
н
intel@@
ffe@@
rable
bling
abstr@@
usen
King@@
contam@@
versities
effor@@
dimen@@
anas
ourable
compreh@@
toric
Ukra@@
Inn@@
Vice-@@
interf@@
Piaz@@
ende@@
controll@@
Prof@@
burea@@
mys@@
ă
hai
implemen@@
desi@@
Objec@@
celebr@@
Priv@@
thema@@
mom@@
phe
gentle@@
erb@@
tob@@
alth
libr@@
ACH
socio-@@
dang@@
every@@
tui@@
gious
chec@@
ingent
Struc@@
Sever@@
President-@@
ि@@
colle@@
htt@@
Egyp@@
ellation
versary
earthqu@@
neighb@@
-of-the-@@
П@@
Blue@@
uries
peop@@
iterranean
sung
country@@
promo@@
ę
В@@
ather
Wed@@
lition
Iran@@
ê
µ@@
Amer@@
figu@@
inely
र@@
large@@
percent@@
sustain@@
hygi@@
ú
erra
decre@@
Maced@@
itra@@
Parliam@@
hybri@@
machin@@
inhe@@
enem@@
ativity
ried
racies
Ever@@
archae@@
Slov@@
ï
weal@@
automa@@
robo@@
Part@@
Friend@@
lymp@@
y-to-@@
useums
marri@@
ů@@
News@@
reserv@@
fossi@@
ί@@
xenopho@@
Dres@@
quid
demon@@
`

Jord@@
isms
з
sly
sensus

ulous
υ@@
iors
ţ@@
quis
poc@@
complex@@
sumed
ì
auth@@
Execu@@
ateral
Experi@@
pesti@@
ﬁ@@
consisten@@
Citiz@@
ι
Р@@
slog@@
Malay@@
aints
pically
process@@
ž
bare@@
essive
û@@
depos@@
beauti@@
Fortun@@
Safe@@
contain@@
Perf@@
wri@@
−
alg@@
akia
Kore@@
ю
thumb@@
dingly
thorou@@
sophistic@@
arest
124@@
sored
prise
ervation
diz
Accor@@
Sustain@@
Ø@@
Cub@@
accompan@@
Secon@@
especi@@
ī@@
mend@@
Gent@@
tober
integr@@
tumn
milest@@
coura@@
iterran@@
moment@@
cir@@
η@@
stead@@
arel
appointing
drin@@
prep@@
astern
Aca@@
γ@@
wom@@
Initi@@
mire
Profession@@
thu@@
Ç@@
absta@@
neglec@@
got@@
º@@
Cari@@
estig@@
vibr@@
com.
plicity
Explo@@
defic@@
enon
never@@
scen@@
स@@
bean
ο
panor@@
convinc@@
tremend@@
Parti@@
Hostel@@
Diffe@@
prostitu@@
accur@@
horizon@@
leys
fisher@@
favour@@
sers
Foc@@
titudes
independ@@
omen
record@@
claim@@
matically
clar@@
asonic
unde@@
phs
absur@@
d.
beit
chur@@
monopo@@
isco
sovereign@@
detail@@
ã@@
›
^
performan@@
Tus@@
own@@
×
defe@@
atest
resol@@
enty-@@
ł
Cambo@@
δ@@
rement
entre@@
cussions
tack@@
sight@@
pread
gate@@
liferation
ر@@
like@@
earth@@
م@@
enshr@@
limi@@
HOTE@@
renow@@
đ@@
fined
excep@@
so-@@
welve
explic@@
iscal
lub
stake@@
े
stead
hous@@
Ε@@
compul@@
ongs
gour@@
ş
Tok@@
timacy
hagen
cipl@@
demonstra@@
म@@
denly
aper
reposit@@
scap@@
tments
in-Office
orig@@
posure
aceu@@
estab@@
volu@@
assor@@
refrig@@
ester@@
autonom@@
limin@@
intellig@@
barri@@
holm
apers
stat
butt@@
ह@@
stances
stad@@
burgh
न@@
ा
Ó@@
passion@@
Commission@@
versi@@
atories
Â
contex@@
Tari@@
airs
absolu@@
phenom@@
Venezu@@
Icel@@
Ł@@
Moldo@@
Lond@@
administra@@
usal
sugges@@
Sain@@
sionally
stud@@
metho@@
relax@@
invest@@
allel
deed
Ś@@
food@@
purch@@
л
Libr@@
arming
sinc@@
oto
hael
О@@
œ@@
west@@
religi@@
Choo@@
Austr@@
Zimbab@@
ulp@@
essor
parliament@@
cury
perman@@
suici@@
±
Н@@
lect
weap@@
commem@@
prene@@
chocol@@
Portu@@
έ@@
Jap@@
piec@@
chap@@
terror@@
engag@@
Democ@@
ween
¡
dures
vements
worth@@
Exhibi@@
experi@@
orca
acio
ateg@@
reduc@@
Lib@@
pill@@
ن@@
Now@@
ū@@
exper@@
t-in
р
inau@@
regim@@
Never@@
cuis@@
ysis
mbH
ward-@@

manufac@@
و@@
.m.
forth@@
‚
Bav@@
licens@@
Mex@@
withdraw@@
IDS
stitu@@
ő
θ@@
े@@
sels
desp@@
reless
accom@@
alition
М@@
cides
Luxemb@@
5-0@@
ė
famil@@
edly
cook@@
fruit@@
Neigh@@
n&apos;@@
Dut@@
त@@
Т@@
Beauti@@
rapid@@
ocop@@
wholehear@@
credi@@
К@@
ε
Grow@@
і
offic@@
edit@@
д
Ђ
spectr@@
datory
up-to-@@
restor@@
budsman
vacu@@
doz@@
ì@@
А@@
fox
र
ي@@
bile
doubtedly

zig
ं
ल@@
tiques
statis@@
consider@@
ν
ilities
obile
datab@@
awaren@@
Mall@@
Bulg@@
Wash@@
incen@@
politici@@
¥
rote
crit@@
territ@@
inium
Pier@@
Zur@@
lifer@@
kitchen@@
tember
व@@
commod@@
REE
ب@@
ø
inea
aggage
forbi@@
forman@@
ē@@
forese@@
inhabit@@
ň@@
tend@@
forge@@
essively
vate
addres@@
atorium
Hour
Constitu@@
ω@@
Í@@
Addi@@
propos@@
intro@@
Afgh@@
ъ@@
pied
В
ayed
ording
inions
scho@@
Ú@@
hospit@@
itment
felong
curement
ो@@
य@@
nam
olutions
plendid
Theat@@
oeu@@
ulti@@
ї
Bli@@
icop@@
refront
Corpor@@
thcare
ό@@
targe@@
η
Chap@@
atedly
ت@@
Switzer@@
edings
ी
invol@@
ghly
Α@@
tyard
stati@@
sud@@
speak@@
ά@@
itual
your@@
unforge@@
ع@@
χ@@
cei@@
audio@@
ā
brilli@@
promis@@
amber
secon@@
Τ@@
onable
iden@@
ü
enab@@
ō@@
invi@@
formance
sug@@
atin
structive
sibilities
vina
controversi@@
With@@
strong@@
frank@@
magaz@@
Danu@@
Б@@
resque
prac@@
Justi@@
Belgi@@
ة
configu@@
mort@@
Late@@
irregul@@
arding
¼
geno@@
comit@@
Balk@@
Thurs@@
icro@@
marily
reau
soever
thedr@@
tmas
Ñ@@
ň
sequent
ी@@
Commis@@
certific@@
Compan@@
requi@@
Д@@
ľ@@
ن
Youn@@
atmo@@
kok
sewhere
exqu@@
egr@@
offici@@
Avail@@
eches
ext
Ø
col
tude
Braz@@
د@@
enopho@@
Fundam@@
toms
dise@@
second@@
useum
bella
knowled@@
colum@@
υ
ή@@
aland
partner@@
Janu@@
victi@@
क
patter@@
hung@@
gt@@
Cauc@@
î
ugg@@
citizen@@
ά
ugen
precis@@
Califor@@
trict
Abo@@
ebr@@
ů
statu@@
Java@@
Room@@
immedi@@
Newsp@@
sory
‑
ë
encryp@@
Luxembour@@
Fisch@@
logne
Ö
И@@
supp@@
प@@
′
Environ@@
diffe@@
movi@@
reme@@
sidy
Montenegr@@
Mean@@
proper@@
commer@@
obst@@
asus
÷
Fi
Made@@
control@@
Ira@@
¹
ė@@
Mug@@
whol@@
Stutt@@
ż
ج@@
clas@@
genu@@
●
stain@@
द@@
illance
Ћ@@
foreig@@
Feb@@
ople
Ѓ@@
ब@@
uly
citiz@@
challeng@@
signific@@
loyment
htm@@
Devel@@
stantly
β@@
ç
exag@@
ardis@@
compati@@
liest
ु@@
Clim@@
tholic
Ż@@
अ@@
tocols
treat@@
ã
ं@@
Л@@
У@@
balcon@@
prepar@@
ό
Milo@@
É
Ques@@
judici@@
س@@
tefully
kia
Wedn@@
vili@@
simp@@
Ã@@
Nether@@
Ђ@@
wides@@
Import@@
ज@@
rish
Г@@
أ@@
empl@@
Bör@@
andin@@
ي

Ê@@
viera
-of-the-art
Î@@
inev@@
pone
sity
г
З@@
ग@@
own-@@
φ@@
न
fited
ك@@
ADS
स
Israel@@
therapeu@@
Ţ@@
prised
Tamp@@
justed
esday
Febru@@
disadvant@@
environ@@
ر
embly
w.@@
Paci@@
eability
Shang@@
Lt@@
peline
Cohe@@
thusi@@
ή
Е@@
ife
ف@@
ttable
‹
Ν@@
ź
ō
furb@@
does@@
Portugu@@
exempl@@
provi@@
incenti@@
І@@
ASE@@
enjo@@
Â@@
agricul@@
Alterna@@
histic@@
tact
Elev@@
¨
إ@@
sbr@@
apos@@
opti@@
therto
Krem@@
ô
sovere@@
א@@
﻿
Buen@@
wide@@
quil
Ano@@
lous
Mosco@@
jacent
ulic
mitted
redi@@
Acade@@
ت
elim@@
Sadd@@
reland
Ó
ś
selves
nership
त
sidered
since@@
Indu@@
Ő@@
õ
categ@@
Jacqu@@
monopoli@@
minal
tary-@@
occur@@
relev@@
ishings
ľ
б
י@@
Galile@@
ύ@@
ї@@
adian
rolean
ommer@@
श@@
Amster@@
hatt@@
GMO@@
※
Ibi@@
PE-@@
¬
enlar@@
Ş@@
ocol@@
ै@@
excur@@
ÿ@@
ù@@
ش@@
porate
Ќ@@
Ο
-Fi
Croati@@
ñ
engen
Leip@@
dure
chall@@
Düssel@@
undry
apeu@@
س
compon@@

mous
़
ध@@
authen@@
ه@@
conom@@
À
jacu@@
undred
û
ح@@
Algar@@
gart
verages
Jacu@@
Ý@@
ا
abled
UNES@@
straight@@
Μ@@
kilomet@@
Face@@
Э@@
raphs
uclear
ť
ÿ
भ@@
distric@@
presenta@@
Afghan@@
estival
Х@@
№
ardous
Chancell@@
swif@@
inju@@
teness
د
grees
poor@@
manufactu@@
idyl@@
sterity
eap
خ@@
tares
devel@@
ξ@@
È@@
orer
″
प
supr@@
ै
Declar@@
elings
À@@
olden
ť@@
ی@@
ingness
destri@@
ز@@
†
Đ@@
SCE
ू@@
ו@@
assess@@
Tali@@
Р
whole@@
¶
⇒
difficul@@
incor@@
prosper@@
ū
ﬂ@@
Palestini@@
¾
य
cany
Monten@@
¢
decis@@
ferred
ª
-how
Ι@@
ņ@@
є@@
SME@@
earch
า@@
æ
Þ@@
ř
enjoy@@
ى
ك
¦
Jos@@
¤
ź@@
bour
ī
ocopying
ע@@
disastr@@
gover@@
】
।
busin@@
accord@@
ल
monit@@
ो
prelimin@@
ď@@
Neighbour@@
च@@
whel@@
औ@@
modities
bul
entiality
【
stanbul
rejec@@
poo@@
Eure@@
Ado@@
Santi@@
takings
appoin@@
इ@@
estima@@
vess@@
ه
ق@@
Ý
ि
ए
outer@@
►
Á
vehic@@
‎
ب
Ü
日@@
arrang@@
unil@@
उ@@
what@@
fundam@@
Љ@@
中@@
ร@@
utin
endary
غ@@
Ч@@
Ř@@
welcom@@
Ð@@
‰
ð
ა@@
require@@
Ω
ר@@
rety
Beij@@
Η
recor@@
ー@@
seve@@
Њ@@
А
ű@@
progra@@
О
Tener@@
ص@@
ე@@
ticles
Ш@@
Ф@@
م
civili@@
Ô@@
ض@@
―
newsp@@
ļ@@
п
ų
relation@@
‡
ל@@
ώ@@
ceil@@
ί
आ@@
ד@@
ceived
ц
þ@@
ل
viet
privile@@
ghout
tocol@@
sugg@@
Õ@@
þ
dispensable
λ
rupt@@
passeng@@
VIE@@
staur@@
ύ
ə@@
ittee
・
و
µ
Π@@
Siem@@
posit
Ä
lare
Џ@@
campa@@
Desp@@
posedly
membered
。
trea@@
trig@@
comings
uctu@@
consist@@
、
ˈ@@
द
clos@@
ж
or-made
daries
dural
เ@@
measure@@
vestock
ω
tware
थ@@
本@@
Lanzar@@
』
unpreced@@
ख@@
ष@@
haps
ड
נ@@
ए@@
Κ@@
perspec@@
erion
★
ई
ķ@@
म
imbur@@
ف
ذ@@
simultane@@
β
ч
文
ג@@
Δ@@
،
Baron@@
̈
ζ@@
Ð
consid@@
thern
ث@@

dren
˚
σ
neigh@@
น@@
adjust@@
ב@@
რ@@
ی
ű
व
Å
Carib@@
Æ@@
done@@
ი@@
Ò@@
ѓ@@
ailand
ლ@@
threat@@
Innsbr@@
Ц@@
regar@@
stree@@
่
​
Д
श
К
ē
ო@@
itoring
Palest@@
Ι
╩
ग
embers
increas@@
irman
फ
ौ@@
פ@@
ط
abilitation
آ@@
מ@@
Ć@@
І
È
和@@
╚
Í
ओ@@
Ľ@@
Amend@@
ה@@
♥
impris@@
ғ@@
Ï@@
̍
ё@@
ן
Ì@@
guarante@@
ष
語
食@@
■
liam
ң
简
ი
quested
ン@@
ш
incredi@@
Š
ว@@
encoura@@
้
ģ@@
ט@@
akfast
employe@@
π
broch@@
な@@
Wikitra@@
ј@@
い@@
oppos@@
ट@@
ज
Chanc@@
←
Helsin@@
strength@@
govina
Throu@@
ט
ğ
ს
И
establish@@
อ@@
ط@@
becom@@
צ@@
მ@@
Egy@@
usal@@
ह
Ρ@@
gether
一@@
ง@@
Я@@
̤
strö@@
ส@@
amend@@
出@@
thermore
ה
ख
φ
ם
）
Œ@@
頂@@
kilom@@
ɐ
ŏ@@
と@@
rapporte@@
博@@
¯
ψ@@
台@@
Maastric@@
≥
Ô
上@@
ब
イ@@
Ď@@
Γ@@
˝
ก@@
ר
ั@@
ม@@
Ï
theless
て@@
ə
ห@@
ɐ@@
市
Ì
י
⇢
○

َ@@
≤
ק@@
▒
ک@@
Û@@
İ
थ
ancial
Õ
『
ә@@
Wha@@
च
Ο@@
พ@@
Copen@@
ス@@
ण
ё

Љ
ま@@
ع
ounge
ย@@
Β@@
ǎ@@
ț@@
ớ@@
ː@@
გ@@
↑
regard@@
hattan
დ@@
highligh@@
Ń@@
‏
ृ@@

√
ư@@
Φ@@
award-@@
の@@
大@@
ุ@@
に@@
viron@@
ș@@
-to-day
网@@
ש@@
－
น
ĕ@@
た@@
ิ@@
छ@@
北@@
い
OEC@@
ء
ţ
ค@@
ト@@
ण@@
Ю@@
œ
є
˛
三@@
ต@@
У
天@@
Ş
国@@
（
り@@
gosla@@
安@@
ッ@@
⁄
Ë@@
usalem
Ę@@
≈
漢@@
か@@
Ž
ạ@@

ώ
explan@@
っ@@
文@@
用@@
Ú
ु
щ
で@@
detri@@
ช@@
reaties

す
ע
ѕ@@
ル@@
streng@@
Ÿ@@
ვ@@
海@@
แ@@
道
ұ@@
ट
Č
ֿ@@
ี@@
ら@@
し@@
区
tournam@@
常@@
charac@@
◆
在@@
ً
Maa@@
ง
Н
ม
ŭ@@
ท@@
ң@@
њ@@
寺
ー
Ћ
ệ@@
ď
ン
ɛ@@
һ@@
克@@
Υ@@
站
Secretary-@@
み@@
ნ@@
scenari@@
Ж@@
ơ@@
ˌ@@
酒

Ν
Herze@@
ĝ@@
फ@@
石@@
会@@
ח@@
Ω
satell@@
♪
♦
ล@@
ბ@@

ა
unanim@@
Like@@
Е
eculi@@

ラ@@
¸
۰@@
南@@
picion
Α
ढ
的@@
场@@

レ@@
思@@
：
்
ध
surpris@@
Ń
ِ@@
重@@
შ@@
つ@@
́
₂
新@@
obstac@@
─
ʃ
下@@
cean
Ф
，
バ@@
‐
っ
ะ
ำ@@
匿@@
易@@
ү@@
whate@@
ไ@@
取@@
Г
Ñ
寿@@
乐@@
ָ@@
ॉ@@
名
ề@@
メ@@
ย
gure
γ
司
ɾ@@
手@@
Certain@@
ַ@@
answe@@
ข@@
を@@
语
免@@
ხ@@
among@@
ะ@@
ŭ

シ@@
Musli@@
Edin@@
◊
ዓ@@
娱@@
山@@
obody
れ@@
あ@@
赌@@
来@@
ɪ@@
五@@
Л
บ@@
ტ@@
į
∞
◎
ɨ
ّ@@
ќ
ʼ@@
በ@@
қ@@
ジ@@
ל

ס@@
李@@
県
ф
ถ@@
ด@@
♣
金@@
უ@@
ў@@
۲@@
ड@@
合@@
電@@
Ќ
当@@
Sarko@@
ộ@@
チ@@
ز
э
የ@@
ế@@
̃
Î
不@@
ア@@
人
μ
ҡ@@
۱@@
字
▪
オ@@
Cypr@@
ठ@@
apore
Verhe@@
τ
ँ
‛
机@@
Σ@@
apparen@@
ई@@
ḥ@@
М
Χ@@
로
ֹ@@
Τ
Ī@@
す@@
ひ@@
正@@
Hostelsc@@
ँ@@
˜
上
わ@@
見@@
ຸ@@
年@@
თ@@
キ@@
ª@@
大
ת@@
路
ө@@
長@@
城
マ@@
白@@
Cherno@@
ศ@@
も@@
木
駅
州@@
Ά@@
的
剥@@
情@@
人@@
ְ@@
Milose@@
雄@@
parliam@@

ờ@@
青@@
Û
明@@
ረ@@

る
解@@
は@@
pril
한@@
ˆ
￥
啦
&@@
物@@
国
ด
ּ@@
Ρ
分@@
茶
ナ@@
字@@
十@@
知@@
武@@
敏
西
็
ʃ@@
相@@
ŕ
assum@@
ɑ@@
ת
ق
ห
♀
ổ@@
原@@
浦@@
ქ@@
記
enever
切@@
自@@
里@@
۴
ả@@
ġ@@
．
定@@
は
მ
ُ@@
recog@@
る@@
得@@
ይ@@
Ç
▼
ɫ@@
ǔ
木@@
さ@@
フ@@
Ć
ґ@@
高@@
信@@
Я
Η@@
交@@
ቀ@@
۷
Ѕ@@
Ě@@
ም@@
有@@
清@@
ऊ@@
ื
ﬁ
ん
心
風
お@@
き@@
式@@
套@@
Ѓ
；
घ@@
东
Ж
湯
修
ウ@@
ル
入@@
生@@
ส
家
Ĉ@@
く@@
Ů@@
屋
ƒ@@
۹
ს@@
บ
mately

Ā@@
ี
京@@
Ò
์
ャ@@
東@@
ɾ
झ@@
ใ@@
居@@
་
Й@@
场
克
馬
Ù@@
ิ
ז
ワ@@
八@@
̆
Ě
า
Λ@@
Σ
ΐ@@
dividu@@
赤@@
ρ
コ@@
仁@@
仁
จ@@
王@@
itage
ኣ@@
川@@
広@@
อ
ṳ
ว
attemp@@
う@@
山
ც@@
以@@
利@@
Ÿ
̣
ſ@@
ד
ʒ
☆
パ@@
♠
₩
ѕ
ู@@
ト
ɨ@@
ร

℃
acknow@@
疫@@
が@@
ļ
珠@@
ecommer@@
Щ@@
館
ẽ
Ğ@@
ἰ@@
Ň@@
球@@
田
ħ@@
戴@@
ṭ@@
ก
最@@
▸
比@@
よ@@
Έ@@
こ@@
カ@@
度@@
ǐ@@
食
图
ִ@@
釉@@
ː
ṳ@@
广@@
り
ĩ
ञ@@

ま
ў
客
華@@
ェ@@
Њ
‌
西@@
پ@@
京
ラ

Ē@@
事@@
吧
ツ@@
名@@
门
ク
Δ
國@@
测@@
四@@
た
必@@
本
是@@
ተ@@
回@@
禅
楽@@
კ@@
ז@@
め@@
学@@
开@@
参@@
テ@@
ấ@@
ỹ@@
˙
➲
过@@
ữ
丹@@
ス
立@@
タ@@
ắ@@
小@@
内@@
ữ@@
ِ
湯@@
baij@@
体
Ă
体@@
어
█
線
動@@
oppon@@
ҙ@@
特@@
蛋@@
引@@
庆@@
焼@@
ሻ
应
Ņ@@
設@@
छ
ງ@@
◙
飲@@
እ@@
江
ɫ
⇗
黄@@
ג
ວ@@
ằ@@
然@@
₤
張@@
ጨ@@
Ù
古@@
神@@
ị
板@@
perior
Θ@@
₵
話
Ό@@
読@@
直@@
換@@
王
じ@@
日
士
友@@
明
非@@
茶@@
њ
ገ@@
街
ٍ
女@@
株@@
θ
只@@
ኦ@@
甜@@
Э
ハ@@
✿
주@@
へ
华@@
通@@
深@@
」
科
也
哈@@
园@@
โ@@
水
持@@
子
湖@@
฿
Ę
馬@@
喜@@
車@@
colleag@@
З
妻
ू
ĺ@@
ョ@@
音
揃@@
美@@
中
濟@@
↓
thedral
◇
角
余@@
楽
Ċ@@
强@@
መ@@
icars
危@@
ồ@@
ϊ@@
リ@@
┌
ɑ
ש
看@@
昭@@
ビ@@

話@@
ס
島@@
ĉ@@
گ@@
ǔ@@
超@@
下
都@@
実@@
आ
ህ
ው
ƒ
ນ
水@@
│
無@@
灣@@
援@@
Ą@@
ふ@@
廣
許@@
국@@
部@@
巴@@
關@@
有
ү
風@@
装@@
一
检@@
元@@
̀
ັ@@
可@@
儀
⌘
ζ
急
Х
云@@
福@@
三
旅@@
ј
PPE-@@
円
降@@
김@@
你@@
酎
惧@@
百@@
Ů
林
关@@
血
か
湾
አ
ึ@@
ክ@@
英@@
社
九@@
州
ญ@@
ɒ@@
島
子@@
江@@
ễ@@
ณ@@
ጽ
サ@@
Ť@@
横@@
言@@
月
ج
구@@
裕@@
፣
鵜@@
Ζ@@
宜@@
ち@@
白
廣@@
二
भ
ር
ʊ@@
羅
ờ
ジ
架@@
ペ@@
ቶ@@
③
て
Ҡ@@
方@@
头@@
田@@
平@@
ɔ
行@@
事
込@@
į@@
Ḥ@@
村
浙@@
前@@
图@@
嘟@@
◦
求@@
Ю
開@@
月@@
ா@@

越
适@@
ợ@@
陶@@
花
〔
陳@@
ュ@@
ர
Ł
付@@
泰
脑@@
馆@@
都
耐@@
ќ@@
啦@@
ֵ@@
Ą
ʁ@@
し
銭@@
ʌ@@
ĭ@@
油@@
密@@
梅@@
送@@
ப@@
ユ@@
寶@@
ん@@
精@@
振@@
ش
辛
ɔ@@
ъ
Ｉ@@
紂@@
葉@@
页
吹@@
考@@
ோ@@
δ
ட@@
Whate@@

库@@
Б
珍@@
學
交
注@@
裂@@
见@@
身
而@@
ன
ʲ@@
拳
溥@@
东@@
传@@
钱@@
弔@@
但@@
宗
折@@
Ū@@
う
घ
プ@@
書@@
氏
損@@
村@@
讯
热@@
湖
店
제@@
ั
͘
ዲ
原
隆@@
ல@@
几@@
̄
ィ@@
之
け@@
义@@
怪
ɡ@@
遠@@
寸
返@@
ſ
功@@
泉
流@@
与@@
刘@@
ธ@@
林@@
愛@@
體
代@@
士@@
区@@
垣@@
ダ@@
熨@@
民@@
起@@
ק
ʀ@@
Θ
尔@@
ח
简@@
弄@@
章
主@@
滞@@
ป@@
태@@
作@@

ợ
「
牙@@
南
仙
系@@
藤
ธ
其@@
後@@
Ἔ@@
臺@@
加@@
幹@@
所@@
親@@
ټ@@
み
応@@
￠
紙@@
ค
월
箍
掻@@
手
参
味@@
ต
黒@@
づ@@
帝@@
َ
二@@
過@@
浜@@
粤@@
ị@@
ባ@@
内
牌@@
ດ@@
ば@@
野@@
配@@
ک
急@@
后@@
分
宝@@
ṭ
米@@
使@@
飛@@
え@@
བ@@
ŷ@@
➔
难@@
ღ
お
羅@@
爪@@
故@@
含@@
Т
義@@
Ō@@
谷
言
弁@@
ド@@
皇@@
斗@@
П
没@@
潢@@
ׁ@@
去@@
運
乎@@
彩@@
refuge@@
发@@
浴
排@@
鍋
ሰ@@
∼
ሕ
ມ@@
鏡@@
訊
点
院
ɣ@@
松@@
∃
ヒ@@
巻@@
지@@
ố
Œ
［
್
┐
網
见
始@@
ئ@@
Ė@@
ゑ
ḥ
ず@@
抜@@
校

א
έ
デ@@
徒@@
号
若@@
花@@
ە@@
せ@@
ɤ@@
ข
鉋@@
ภ@@
陀@@
钧@@
ῖ@@
粵@@
加
物
举@@
だ@@
カ
ా@@
Ў
セ@@
箱@@
東
微@@
인@@
記@@
ụ@@
Þ
ỉ
住@@
陽
酒@@
ظ@@
κ
で
女
ǵ
ठ
き

止@@
ɹ
卓@@
℮
ɹ@@
্
于@@
気@@
ნ
温@@
多@@
도
ら
稲@@
龙@@
루
〕
┘
植@@
└
第@@
ご@@
モ@@
蒸@@
⅔
阿@@
北
景
想@@
器@@
۵@@
ク@@
来
ә
菜
春@@
چ@@
ம
☺
市@@
ġ
电@@
际@@
ຖ@@
販@@
Ј@@
ũ
⋅
ầ@@
売@@
洛
①
仲
聞@@
崎@@
ỉ@@
圓@@
慣@@
屋@@
教@@
ố@@
ฟ@@
일
ŝ@@
全@@
愛

ღ@@
具@@
術
很@@
こ
佐@@
ゲ@@
別@@
న@@
ネ@@
竹@@
ょ@@
ผ@@
؛
気
க@@
近@@
香@@
ʿ@@
ゴ@@
放@@
ド
أ
路@@
載@@
致
公@@
假@@
년
受
郎
治@@
？
皮@@
脱@@
ץ
握@@
Џ
ຄ@@
奶@@
岸@@
眼@@
剧
速@@
ケ@@
呂
担@@
向@@
唸@@
ล
建@@
道@@
氣
ې
心@@
ூ@@
ザ@@
健@@
真
夫
ɒ
朝@@
越@@
ブ@@
口@@
ṇ@@
Æ
肉
ʻ@@
Ｖ@@
☼
题
为@@
问@@
Χ
种
家@@
↔
じ
快@@
発
园
➚
奚@@
掛@@
殊@@
括
ி
ት
ɛ
ћ@@
维@@
談
த@@
Ġ@@
ຽ@@
所
属@@
Ы
冷@@
خ
状@@
育@@
届@@
피@@
ア
ḇ@@
済@@
凄@@
到@@
癌
题@@
頑@@
‼
機
庭@@
献@@
unior
了@@
♂
司@@
答
Ř
조@@
ㄤ
検@@
获@@
介@@
个@@
躊@@
锋@@
鸭@@
柔@@
宮@@
Ἱ@@
珈@@
橋@@
撫@@
礼@@
經
是
阪@@
‖
ป
岭
이@@
번
渋@@
沢
線@@
技@@
ॐ
倒@@
천@@
坝@@
າ@@
復@@
玉@@
幸@@
韓@@
员@@
嚴@@
泰@@
ĥ
等@@
づ
音@@
仪
ァ@@
서@@
能@@
怡@@
極@@
札@@
捷@@
逃@@
私@@
려
시
트@@
辭
나@@
財@@
芝
ŝ
∴
康
足@@
利
却@@
ɵ@@
◈
Ħ@@
救@@
門@@
५
至@@
之@@
尘@@
群
发
ْ@@
ರ@@
紧@@
眩@@
ི
達@@
訓@@
̇
Ọ@@
ɴ
代
鬼
ち
げ
璐
ḫ@@
ば
論
۞
舞@@
園
稅@@
დ
汴
靳@@
ڬ@@
説
ท
Ὑ@@
訓
閥
豫
杭@@
混@@
设@@
仮@@
艳@@
ʦ@@
空
라
保
紋
果
⃛
岐@@
帯@@
胞
！
途
ங
攻@@
索
去
己@@
ʊ
草
場
গ
ぼ@@
官@@
국
龍
झ
ہ@@
웅@@
ಶ
董@@
Ë
連@@
祸
球
耀@@
막@@
星@@
今
翻@@
ダ
嘉@@
Ⅱ
哈
粉
間@@
غ
ይ
ལ@@
枡
比
讼
磁@@
ன@@
題@@
級
Ｓ@@
録@@
ŵ@@
族
జ@@
庫@@
단@@
鮨
あ
何@@
오
報@@
复@@
騙@@
글
申@@
或@@
表
署
키@@
說@@
面@@
請
勝@@
壽
ѓ
鼻
销
ಯ@@
疫
∀
ŕ@@
熱@@
帝
元
②
Ľ
כ@@
々@@
唐
细@@
을@@
柱
Rooms.com
ད
当
♫
熟@@
경
油
做
tocol
ゔ
茨@@
意
乾@@
鸯@@
货
絞@@
๑
ど@@
ლ
鉄@@
ilst
欢
环@@
片
Β
內@@
Є@@
请
個@@
호@@
碁
寧@@
管@@
ケ
領@@
教
ｄ
桶
岭@@
ׁ
隊
寄@@
۰
臨@@
豫@@
Ь@@
喫@@
龙
〜
丽@@
冰
ढ@@
渡@@
卦@@
ฝ@@
易
到
順@@
针@@
ཏ
製@@
雷@@
伴@@
透@@
金@@
祿@@
幡@@
胡
瞻
溢@@
충@@
札
慶@@
ĵ@@
ђ@@
ຈ@@
雛@@
兩@@
ې@@
צ
郷@@
牛@@
灣
臓
ử
银@@
火@@
ẋ@@
乱@@
Ё@@
Ǵ
根@@
卖@@
グ
宮
☻
騜@@
夕@@
奈@@
ځ@@
☑
桜@@
协@@
్
賢
ｕ@@
ừ@@
阳@@
珍
ぶ@@
罪
ऐ@@
織@@
☎
१@@
ヨ@@
ड़@@
俊
終@@
助@@
宣@@
ོ@@
๊
ช
室@@
暫@@
㎡
備@@
順
晏@@
일@@
紂
ট@@
庄@@
露@@
无@@
貮@@
瓶
珠
井@@
湾@@
勿@@
威@@
ى@@
噌
螨@@
변@@
유@@
Κ
ֶ@@
和
戒@@
ڭ
馆
役@@
案@@
泊@@
像
婦@@
ぎ@@
℔
ጽ@@
赵@@
着@@
专@@
ث
訳
선
剣
灾@@
목
呼@@
基@@
视@@
者
麩@@
吗
港@@
派@@
禁@@
ை
旧@@
皇
箱
Ἀ@@
漢
ἄ@@
ۇ@@
ɕ@@
茜
ሴ
ሙ@@
芦@@
ử@@
체@@
租@@
澄
式
ǟ@@
ບ
圳@@
稼@@
티@@
汉@@
杨@@
］
ⁿ@@
ガ@@
双@@
ு@@
琢
ฑ@@
९@@
汇@@
邑
线
ォ@@
圓
を
洞
წ@@
舊@@
ự
衆@@
浴@@
濱
峽
‶
次@@
跨@@
태
무@@
倉@@
∈
Ἡ@@
ɪ
ረ
画
≠
刺@@
ე
签@@
票@@
税
영@@
存@@
贊
诉@@
adays
標
長
스@@
რ
＊
瓊@@
ய@@
否@@
才@@
达@@
反@@
ถ
遇@@
চ@@
以
膚
留@@
域
揚@@
Ḫ@@
工@@
須@@
毎@@
奇@@
報
ぁ
態
杏
顯@@
주
限@@
亜@@
興@@
亿@@
ぐ@@
武
怒@@
戸@@
鼻@@
ን@@
步
滨
었@@
欢@@
徳
∶
區
転
荣@@
ొ@@
温
皮
知
岩@@
幾@@
辞@@
ぢ@@
躇@@
呀
ッ
浦
要@@
╞
스
ʐ
으@@
商
詰@@
ム@@
･
干
鎚@@
ุ
匡@@
力@@
丘@@
藤@@
︰
线@@
泥@@
摇@@
ς@@
拳@@
ລ@@
owever
銀@@
画@@
疗
Ｐ
ፍ@@
구
胡@@
就@@
ბ
輪@@
爾@@
外
鮮
科@@
贱@@
止
딩@@
۵
ძ@@
殻@@
ெ@@
赖@@
静@@
₠
□
吾@@
経@@
阳
環@@

yond
祖@@
側@@
石
详@@
社@@
뱅
聖@@
李
侍
양
吃@@
乌
理@@
ٹ
盛@@
ゥ@@
理
合
ْ
腹
呑@@
₪
ῥ@@
确@@
庫
置@@
悩@@
雙@@
応
웨@@
拼@@
翁@@
ರ
庁
마@@
遗@@
鳩@@
表@@
ḳ@@
腹@@
율@@
項
冊@@
ڠ@@
粤
ผ
ச@@
验@@
試@@
造@@
嶺@@
嶺
憶@@
厂@@
ವ@@
嘛@@
六@@
玄
尾
퇴@@
仝
伟
乗@@
联
郝@@
が
ሓ@@
사
체
성@@
澤
筆@@
崔
务
已@@
制
臂@@
喇@@
세@@
徽
མ
క@@
溝@@
波@@
ర
逸
ೈ
稿
跆@@
ỹ
产@@
ainst
む@@
医@@
ậ@@
問@@
變@@
ỏ@@
ʾ@@
塾@@
滇@@
呼
川
万@@
岗@@
Ś
１
施@@
ホ@@
蔓@@
父@@
摂@@
蕭
季@@
色@@
塗@@
ট
や
ἠ@@
足
气@@
ম
圆@@
⌃
ነ@@
ș
少@@
材
客@@
調@@
男
Ź
如@@
良@@
鯨
了
较@@
ぐ
验
慢@@
Ц
病@@
遷
麗
ಐ@@
ʒ@@
ʲ
⅛
署@@
맨@@
ả
证
ు@@
精
ĝ
站@@
ĩ@@
革@@
Ű@@
習@@
变@@

ڤ@@
禪
撮@@
剑
ሽ@@
夛@@
འ@@
徳@@
ά@@
ȃ@@
ѳ
碧
备@@
疆@@
町@@
您@@
菜@@
众
外@@
截@@
屯@@
钟@@
ũ@@
Ẳ@@
ぃ
对
電
芝@@
納
隆
鷹@@
較@@
溪@@
霜@@
詳@@
Ζ
实@@
鸡
圍@@
賀@@
豆@@
ዕ
单@@
題
媛@@
☏
ி@@
வ@@
哥@@
녀
레@@
揂@@
坐@@
伝@@
ぷ
ピ@@
変@@
成@@
八
祖
谢@@
叡@@
에
া@@
̡
程@@
機@@
業@@
Ǻ
粵
地@@
父
燗
堆
đ
料@@
试@@
ื@@
ね@@
及@@
楼
에@@
簡@@
光@@
전
せ
ญ
煮@@
続@@
ｅ
红@@
贷@@
읍
煙
₴
谋@@
貸@@
駅@@
ŋ@@
夢@@
Ɔ@@
铁
の
昌@@
畿@@
赶@@
沿@@
应@@
近
동
车
省
ἀ@@
貢@@
押@@
佑
ｓ
ཱ@@
虑@@
仅@@
议
繁
ֲ@@
鸳@@
位@@
９@@
承@@
정@@
氏@@
两@@
朱@@
≡
者@@
２@@

索@@
痛@@
土
პ@@
庚
ზ@@
純@@
包@@
沙@@
遽@@
携@@
ፈ
悬@@
血@@
些@@

防@@
独@@
ಾ
신@@
廃@@
车@@
堂
渝
舫@@
痴
护@@
ゃ@@
‽
婁
節
回
░
べ@@
央
계@@
ב
久@@
夷@@
羽@@
沈@@
德@@
晨@@
俊@@
다
梁@@
志@@
ር@@
డ
巨@@
ĉ
塩@@
洞@@
०@@
貌
嘛
고@@
ｂ@@
ओ
商@@
处
征@@
ĸ@@
长@@
找@@
邊@@
投@@
드@@
니@@
憾
ჯ@@
ų@@
ể
探@@
准@@
ぇ
蹟
吴@@
堰
噛@@
뀌@@
ฎ@@
車
７@@
形@@
済
呉@@
蔚
ﬂ
義
鏡
Ň
许@@
兵@@
崩@@
颐
慶
卡
พ
ླ
ぢ
柴@@
赛@@
土@@
ｏ@@
洗@@
凄
般@@
迎
登@@
ạ
澎@@
印
ษ@@
ẻ
곡@@
膚@@
挡@@
ح
適@@
ۂ
く
烏
ĸ
衡@@
但
권@@
ู
鄭@@
문@@
な
종@@
ư
빅@@
府
妻@@
骨@@
艮
佰
升@@
ἦ@@
健
呆@@
化@@
鱲@@
ḏ
ゐ
伯@@
抹@@
计@@
秋
Ώ
､
色
Μ
치@@
設
伯
ص
接@@
Ω@@
ደ@@
訃@@
ὶ@@
这
宫@@
母@@
ｿ@@
熊@@
条@@
樹@@
烧@@
毓@@
资
千@@
∑
乙
沪@@
Ă@@
刀
煙@@
辱@@
语@@
囧
ず
蘇
터
는
刑@@
便@@
种@@
脖@@
勢@@
ዋ
國
Ы@@
页@@
这@@
新
傳@@
紋@@
什
র@@
保@@
ズ
拓@@
咬@@
讃@@
钦
▲
ĵ
律
螳@@
フ
ロ@@
ỡ
ం@@
Ѳ
要
志
夜@@
年
漫@@
エ@@
護@@
ế
恋@@
米
紅@@
稲
號
六
受@@
平
書
瓶@@
码@@
气
ካ
浮@@
Ε
摩@@
片@@
报@@
釣@@
祭@@
敏@@
۸
면
七@@
ｈ@@
ミ@@
坪@@
坡
Π
寺@@
貰@@
΄
ጋ@@
ね
死
荷@@
성
构@@
노@@
飼@@
丨
终@@
秉@@
₁
ǎ
ヘ
面
节
散@@
陵@@
関@@
劇@@
妖@@
決@@
體@@
満@@
ߧ@@
黎@@
信
Ｐ@@
净@@
芋@@
ቐ@@
决@@
四
ṛ
鄂
Ⰶ
街@@
娃
通
秦@@
ặ@@
歩@@
目
蔣@@
拿@@
空@@
ґ
劇
问
이
ự@@
吉@@
岡@@
＄
朔
Ơ@@
真@@
叫@@
部
成
郑@@
慎
永@@
ℓ@@
试
板
老@@
老
습@@
梁
潮@@
智@@
바@@
渝@@
支@@
గ@@
谢
け
坡@@
‒
↧
列
ო
Ź@@
半@@
生
螨
頭
覧@@
ஷ@@
Ω@@
池
坂
ظ
致@@
定
煩@@
therwise
迎@@
撤@@
燕@@
த
湘
幌@@
弁

드
敬@@
传
琲

箕@@
ｌ@@
腔
ፅ@@
飼
莨
史@@
樓@@
